{
  "version": "1.0",
  "truncation": null,
  "padding": null,
  "added_tokens": [
    {
      "id": 0,
      "content": "<mask>",
      "single_word": false,
      "lstrip": false,
      "rstrip": false,
      "normalized": false,
      "special": true
    }
  ],
  "normalizer": {
    "type": "Lowercase"
  },
  "pre_tokenizer": {
    "type": "ByteLevel",
    "add_prefix_space": false,
    "trim_offsets": true,
    "use_regex": true
  },
  "post_processor": null,
  "decoder": {
    "type": "ByteLevel",
    "add_prefix_space": true,
    "trim_offsets": true,
    "use_regex": true
  },
  "model": {
    "type": "BPE",
    "dropout": null,
    "unk_token": null,
    "continuing_subword_prefix": null,
    "end_of_word_suffix": null,
    "fuse_unk": false,
    "byte_fallback": false,
    "ignore_merges": false,
    "vocab": {
      "<mask>": 0,
      "!": 1,
      "\"": 2,
      "#": 3,
      "$": 4,
      "%": 5,
      "&": 6,
      "'": 7,
      "(": 8,
      ")": 9,
      "*": 10,
      "+": 11,
      ",": 12,
      "-": 13,
      ".": 14,
      "/": 15,
      "0": 16,
      "1": 17,
      "2": 18,
      "3": 19,
      "4": 20,
      "5": 21,
      "6": 22,
      "7": 23,
      "8": 24,
      "9": 25,
      ":": 26,
      ";": 27,
      "<": 28,
      "=": 29,
      ">": 30,
      "?": 31,
      "@": 32,
      "A": 33,
      "B": 34,
      "C": 35,
      "D": 36,
      "E": 37,
      "F": 38,
      "G": 39,
      "H": 40,
      "I": 41,
      "J": 42,
      "K": 43,
      "L": 44,
      "M": 45,
      "N": 46,
      "O": 47,
      "P": 48,
      "Q": 49,
      "R": 50,
      "S": 51,
      "T": 52,
      "U": 53,
      "V": 54,
      "W": 55,
      "X": 56,
      "Y": 57,
      "Z": 58,
      "[": 59,
      "\\": 60,
      "]": 61,
      "^": 62,
      "_": 63,
      "`": 64,
      "a": 65,
      "b": 66,
      "c": 67,
      "d": 68,
      "e": 69,
      "f": 70,
      "g": 71,
      "h": 72,
      "i": 73,
      "j": 74,
      "k": 75,
      "l": 76,
      "m": 77,
      "n": 78,
      "o": 79,
      "p": 80,
      "q": 81,
      "r": 82,
      "s": 83,
      "t": 84,
      "u": 85,
      "v": 86,
      "w": 87,
      "x": 88,
      "y": 89,
      "z": 90,
      "{": 91,
      "|": 92,
      "}": 93,
      "~": 94,
      "¡": 95,
      "¢": 96,
      "£": 97,
      "¤": 98,
      "¥": 99,
      "¦": 100,
      "§": 101,
      "¨": 102,
      "©": 103,
      "ª": 104,
      "«": 105,
      "¬": 106,
      "®": 107,
      "¯": 108,
      "°": 109,
      "±": 110,
      "²": 111,
      "³": 112,
      "´": 113,
      "µ": 114,
      "¶": 115,
      "·": 116,
      "¸": 117,
      "¹": 118,
      "º": 119,
      "»": 120,
      "¼": 121,
      "½": 122,
      "¾": 123,
      "¿": 124,
      "À": 125,
      "Á": 126,
      "Â": 127,
      "Ã": 128,
      "Ä": 129,
      "Å": 130,
      "Æ": 131,
      "Ç": 132,
      "È": 133,
      "É": 134,
      "Ê": 135,
      "Ë": 136,
      "Ì": 137,
      "Í": 138,
      "Î": 139,
      "Ï": 140,
      "Ð": 141,
      "Ñ": 142,
      "Ò": 143,
      "Ó": 144,
      "Ô": 145,
      "Õ": 146,
      "Ö": 147,
      "×": 148,
      "Ø": 149,
      "Ù": 150,
      "Ú": 151,
      "Û": 152,
      "Ü": 153,
      "Ý": 154,
      "Þ": 155,
      "ß": 156,
      "à": 157,
      "á": 158,
      "â": 159,
      "ã": 160,
      "ä": 161,
      "å": 162,
      "æ": 163,
      "ç": 164,
      "è": 165,
      "é": 166,
      "ê": 167,
      "ë": 168,
      "ì": 169,
      "í": 170,
      "î": 171,
      "ï": 172,
      "ð": 173,
      "ñ": 174,
      "ò": 175,
      "ó": 176,
      "ô": 177,
      "õ": 178,
      "ö": 179,
      "÷": 180,
      "ø": 181,
      "ù": 182,
      "ú": 183,
      "û": 184,
      "ü": 185,
      "ý": 186,
      "þ": 187,
      "ÿ": 188,
      "Ā": 189,
      "ā": 190,
      "Ă": 191,
      "ă": 192,
      "Ą": 193,
      "ą": 194,
      "Ć": 195,
      "ć": 196,
      "Ĉ": 197,
      "ĉ": 198,
      "Ċ": 199,
      "ċ": 200,
      "Č": 201,
      "č": 202,
      "Ď": 203,
      "ď": 204,
      "Đ": 205,
      "đ": 206,
      "Ē": 207,
      "ē": 208,
      "Ĕ": 209,
      "ĕ": 210,
      "Ė": 211,
      "ė": 212,
      "Ę": 213,
      "ę": 214,
      "Ě": 215,
      "ě": 216,
      "Ĝ": 217,
      "ĝ": 218,
      "Ğ": 219,
      "ğ": 220,
      "Ġ": 221,
      "ġ": 222,
      "Ģ": 223,
      "ģ": 224,
      "Ĥ": 225,
      "ĥ": 226,
      "Ħ": 227,
      "ħ": 228,
      "Ĩ": 229,
      "ĩ": 230,
      "Ī": 231,
      "ī": 232,
      "Ĭ": 233,
      "ĭ": 234,
      "Į": 235,
      "į": 236,
      "İ": 237,
      "ı": 238,
      "Ĳ": 239,
      "ĳ": 240,
      "Ĵ": 241,
      "ĵ": 242,
      "Ķ": 243,
      "ķ": 244,
      "ĸ": 245,
      "Ĺ": 246,
      "ĺ": 247,
      "Ļ": 248,
      "ļ": 249,
      "Ľ": 250,
      "ľ": 251,
      "Ŀ": 252,
      "ŀ": 253,
      "Ł": 254,
      "ł": 255,
      "Ń": 256,
      "th": 257,
      "Ġth": 258,
      "Ġa": 259,
      "ou": 260,
      "Ġs": 261,
      "er": 262,
      "Ġh": 263,
      "in": 264,
      "Ġm": 265,
      "Ġw": 266,
      "or": 267,
      "en": 268,
      "Ġb": 269,
      "Ġi": 270,
      "an": 271,
      "Ġt": 272,
      "Ġthe": 273,
      "ar": 274,
      "on": 275,
      "es": 276,
      "Ġf": 277,
      "ll": 278,
      "at": 279,
      "Ġc": 280,
      "is": 281,
      "Ġl": 282,
      "Ġd": 283,
      "Ġy": 284,
      "Ġn": 285,
      "Ġo": 286,
      "Ġp": 287,
      "Ġto": 288,
      "Ġan": 289,
      "Ġyou": 290,
      "re": 291,
      "ing": 292,
      "Ġg": 293,
      "om": 294,
      "Ġof": 295,
      "ve": 296,
      "Ġand": 297,
      "ow": 298,
      "st": 299,
      "ed": 300,
      "and": 301,
      "Ġwi": 302,
      "Ġbe": 303,
      "se": 304,
      "Ġno": 305,
      "ch": 306,
      "le": 307,
      "Ġmy": 308,
      "ce": 309,
      "ay": 310,
      "Ġin": 311,
      "Ġhe": 312,
      "Ġha": 313,
      "ir": 314,
      "et": 315,
      "ut": 316,
      "ere": 317,
      "ld": 318,
      "ri": 319,
      "us": 320,
      "Ġwh": 321,
      "ke": 322,
      "Ġsh": 323,
      "Ġme": 324,
      "it": 325,
      "'s": 326,
      "Ġis": 327,
      "gh": 328,
      "ent": 329,
      "Ġthat": 330,
      "Ġfor": 331,
      "oo": 332,
      "im": 333,
      "Ġnot": 334,
      "our": 335,
      "ea": 336,
      "as": 337,
      "Ġwith": 338,
      "wh": 339,
      "ro": 340,
      "Ġit": 341,
      "Ġk": 342,
      "ome": 343,
      "Ġyour": 344,
      "Ġe": 345,
      "io": 346,
      "ad": 347,
      "al": 348,
      "un": 349,
      "Ġthou": 350,
      "Ġst": 351,
      "ther": 352,
      "all": 353,
      "est": 354,
      "'d": 355,
      "ord": 356,
      "am": 357,
      "Ġwe": 358,
      "Ġhis": 359,
      "ard": 360,
      "ly": 361,
      "ght": 362,
      "ur": 363,
      "Ġhave": 364,
      "id": 365,
      "Ġli": 366,
      "Ġhim": 367,
      "Ġthis": 368,
      "ra": 369,
      "ess": 370,
      "ck": 371,
      "Ġv": 372,
      "Ġso": 373,
      "Ġas": 374,
      "Ġon": 375,
      "Ġdo": 376,
      "for": 377,
      "the": 378,
      "to": 379,
      "ould": 380,
      "ood": 381,
      "li": 382,
      "ain": 383,
      "Ġre": 384,
      "ge": 385,
      "ru": 386,
      "Ġthy": 387,
      "Ġwill": 388,
      "Ġbut": 389,
      "ver": 390,
      "ell": 391,
      "ear": 392,
      "ion": 393,
      "Ġfa": 394,
      "ee": 395,
      "Ġall": 396,
      "up": 397,
      "ake": 398,
      "Ġher": 399,
      "qu": 400,
      "end": 401,
      "Ġr": 402,
      "ill": 403,
      "ter": 404,
      "Ġlo": 405,
      "Ġpr": 406,
      "Ġsp": 407,
      "Ġgo": 408,
      "Ġwhat": 409,
      "Ġthee": 410,
      "Ġch": 411,
      "Ġour": 412,
      "Ġby": 413,
      "Ġshall": 414,
      "ry": 415,
      "Ġlord": 416,
      "ast": 417,
      "now": 418,
      "ence": 419,
      "Ġare": 420,
      "ant": 421,
      "that": 422,
      "ore": 423,
      "Ġne": 424,
      "Ġfr": 425,
      "no": 426,
      "wi": 427,
      "Ġun": 428,
      "oun": 429,
      "Ġsu": 430,
      "il": 431,
      "ous": 432,
      "ct": 433,
      "Ġbo": 434,
      "ius": 435,
      "one": 436,
      "ul": 437,
      "Ġ'": 438,
      "Ġup": 439,
      "sel": 440,
      "Ġcon": 441,
      "Ġgood": 442,
      "fe": 443,
      "art": 444,
      "Ġri": 445,
      "ab": 446,
      "ine": 447,
      "Ġcom": 448,
      "king": 449,
      "ich": 450,
      "ust": 451,
      "'ll": 452,
      "ight": 453,
      "Ġat": 454,
      "but": 455,
      "Ġman": 456,
      "Ġmo": 457,
      "Ġam": 458,
      "sh": 459,
      "row": 460,
      "Ġde": 461,
      "Ġking": 462,
      "ate": 463,
      "Ġbl": 464,
      "ap": 465,
      "we": 466,
      "au": 467,
      "ong": 468,
      "Ġsir": 469,
      "out": 470,
      "Ġfrom": 471,
      "ven": 472,
      "Ġif": 473,
      "Ġmore": 474,
      "Ġnow": 475,
      "Ġwas": 476,
      "my": 477,
      "Ġj": 478,
      "Ġthem": 479,
      "ic": 480,
      "ers": 481,
      "Ġmar": 482,
      "ame": 483,
      "Ġthere": 484,
      "Ġhere": 485,
      "ie": 486,
      "ind": 487,
      "Ġdea": 488,
      "ive": 489,
      "ol": 490,
      "ward": 491,
      "Ġcan": 492,
      "Ġwould": 493,
      "uke": 494,
      "Ġshe": 495,
      "um": 496,
      "Ġknow": 497,
      "what": 498,
      "ish": 499,
      "self": 500,
      "een": 501,
      "Ġsay": 502,
      "Ġlove": 503,
      "Ġtheir": 504,
      "Ġus": 505,
      "Ġsee": 506,
      "Ġor": 507,
      "Ġcome": 508,
      "--": 509,
      "Ġthey": 510,
      "Ġthan": 511,
      "Ġlet": 512,
      "'t": 513,
      "Ġar": 514,
      "if": 515,
      "are": 516,
      "ep": 517,
      "Ġthen": 518,
      "Ġwor": 519,
      "ond": 520,
      "Ġmay": 521,
      "Ġrich": 522,
      "fore": 523,
      "ose": 524,
      "ure": 525,
      "Ġqu": 526,
      "op": 527,
      "Ġwell": 528,
      "he": 529,
      "ist": 530,
      "ig": 531,
      "ves": 532,
      "Ġen": 533,
      "ink": 534,
      "Ġpro": 535,
      "ath": 536,
      "Ġpo": 537,
      "Ġone": 538,
      "ook": 539,
      "Ġhath": 540,
      "ble": 541,
      "irst": 542,
      "eak": 543,
      "ue": 544,
      "cent": 545,
      "Ġmake": 546,
      "Ġpl": 547,
      "be": 548,
      "gain": 549,
      "ort": 550,
      "of": 551,
      "Ġmust": 552,
      "ound": 553,
      "Ġwere": 554,
      "you": 555,
      "ady": 556,
      "not": 557,
      "Ġtru": 558,
      "Ġlike": 559,
      "gl": 560,
      "edward": 561,
      "Ġmad": 562,
      "Ġdid": 563,
      "Ġshould": 564,
      "Ġwar": 565,
      "em": 566,
      "lo": 567,
      "uch": 568,
      "Ġgra": 569,
      "Ġfather": 570,
      "centio": 571,
      "Ġsa": 572,
      "Ġhad": 573,
      "Ġrichard": 574,
      "Ġgre": 575,
      "Ġupon": 576,
      "Ġtoo": 577,
      "ity": 578,
      "with": 579,
      "own": 580,
      "ime": 581,
      "man": 582,
      "Ġsome": 583,
      "ince": 584,
      "Ġdeath": 585,
      "come": 586,
      "pp": 587,
      "Ġhow": 588,
      "Ġfri": 589,
      "thou": 590,
      "ork": 591,
      "enry": 592,
      "ance": 593,
      "Ġbro": 594,
      "cl": 595,
      "old": 596,
      "duke": 597,
      "entle": 598,
      "der": 599,
      "Ġout": 600,
      "Ġwhich": 601,
      "Ġspeak": 602,
      "Ġyet": 603,
      "which": 604,
      "ester": 605,
      "Ġedward": 606,
      "omeo": 607,
      "Ġagain": 608,
      "ff": 609,
      "ice": 610,
      "Ġheart": 611,
      "ful": 612,
      "let": 613,
      "Ġwhen": 614,
      "Ġhand": 615,
      "Ġgod": 616,
      "ings": 617,
      "Ġoff": 618,
      "ak": 619,
      "by": 620,
      "cester": 621,
      "el": 622,
      "per": 623,
      "oucester": 624,
      "so": 625,
      "Ġhon": 626,
      "Ġmine": 627,
      "ont": 628,
      "go": 629,
      "men": 630,
      "Ġson": 631,
      "orn": 632,
      "Ġlea": 633,
      "ack": 634,
      "Ġro": 635,
      "Ġtime": 636,
      "Ġgentle": 637,
      "Ġdis": 638,
      "ran": 639,
      "Ġhear": 640,
      "ign": 641,
      "ire": 642,
      "ies": 643,
      "Ġear": 644,
      "wn": 645,
      "Ġhea": 646,
      "ty": 647,
      "ber": 648,
      "well": 649,
      "ian": 650,
      "Ġsuch": 651,
      "ost": 652,
      "Ġgive": 653,
      "Ġbrother": 654,
      "first": 655,
      "ness": 656,
      "Ġab": 657,
      "Ġal": 658,
      "Ġcl": 659,
      "Ġser": 660,
      "Ġhast": 661,
      "why": 662,
      "Ġblood": 663,
      "Ġthese": 664,
      "Ġwhere": 665,
      "Ġex": 666,
      "tis": 667,
      "ave": 668,
      "Ġtell": 669,
      "pet": 670,
      "Ġtake": 671,
      "age": 672,
      "Ġday": 673,
      "Ġsw": 674,
      "Ġii": 675,
      "ise": 676,
      "Ġbre": 677,
      "Ġyork": 678,
      "Ġlife": 679,
      "wick": 680,
      "ag": 681,
      "incentio": 682,
      "Ġey": 683,
      "oul": 684,
      "ery": 685,
      "Ġword": 686,
      "Ġever": 687,
      "gloucester": 688,
      "Ġfriend": 689,
      "iz": 690,
      "ling": 691,
      "Ġthink": 692,
      "how": 693,
      "ither": 694,
      "Ġlook": 695,
      "Ġnor": 696,
      "ious": 697,
      "ving": 698,
      "Ġdes": 699,
      "de": 700,
      "pe": 701,
      "uck": 702,
      "ile": 703,
      "Ġra": 704,
      "this": 705,
      "queen": 706,
      "aw": 707,
      "ens": 708,
      "urn": 709,
      "pt": 710,
      "Ġart": 711,
      "Ġmost": 712,
      "iol": 713,
      "Ġhonour": 714,
      "Ġmuch": 715,
      "Ġvincentio": 716,
      "po": 717,
      "Ġfair": 718,
      "Ġse": 719,
      "Ġfl": 720,
      "Ġfear": 721,
      "Ġmade": 722,
      "ment": 723,
      "ef": 724,
      "her": 725,
      "inius": 726,
      "Ġmen": 727,
      "igh": 728,
      "weet": 729,
      "your": 730,
      "Ġbr": 731,
      "aught": 732,
      "Ġbet": 733,
      "pro": 734,
      "where": 735,
      "lu": 736,
      "ved": 737,
      "Ġper": 738,
      "ase": 739,
      "ild": 740,
      "ss": 741,
      "Ġhenry": 742,
      "Ġnever": 743,
      "rown": 744,
      "Ġgreat": 745,
      "chio": 746,
      "ruchio": 747,
      "ne": 748,
      "orrow": 749,
      "urse": 750,
      "Ġnew": 751,
      "romeo": 752,
      "thing": 753,
      "Ġad": 754,
      "ation": 755,
      "Ġheaven": 756,
      "cc": 757,
      "ts": 758,
      "Ġcoun": 759,
      "ina": 760,
      "Ġwho": 761,
      "aster": 762,
      "thy": 763,
      "ang": 764,
      "Ġpart": 765,
      "Ġjo": 766,
      "Ġcall": 767,
      "Ġpray": 768,
      "Ġfo": 769,
      "cond": 770,
      "ough": 771,
      "oriol": 772,
      "anus": 773,
      "oriolanus": 774,
      "nor": 775,
      "pr": 776,
      "tle": 777,
      "Ġsl": 778,
      "Ġany": 779,
      "Ġstand": 780,
      "Ġcomm": 781,
      "ears": 782,
      "uli": 783,
      "Ġsc": 784,
      "Ġsweet": 785,
      "Ġtrue": 786,
      "Ġcannot": 787,
      "Ġaw": 788,
      "enius": 789,
      "Ġname": 790,
      "ree": 791,
      "Ġbeen": 792,
      "ass": 793,
      "Ġdoth": 794,
      ",--": 795,
      "com": 796,
      "Ġduke": 797,
      "Ġple": 798,
      "uliet": 799,
      "then": 800,
      "erc": 801,
      "Ġtw": 802,
      "Ġnoble": 803,
      "Ġown": 804,
      "Ġke": 805,
      "ull": 806,
      "Ġpre": 807,
      "bro": 808,
      "Ġho": 809,
      "Ġdone": 810,
      "ide": 811,
      "mio": 812,
      "ouse": 813,
      "Ġway": 814,
      "Ġother": 815,
      "Ġhead": 816,
      "Ġmean": 817,
      "Ġqueen": 818,
      "petruchio": 819,
      "eth": 820,
      "ms": 821,
      "alt": 822,
      "menenius": 823,
      "than": 824,
      "Ġsoul": 825,
      "Ġbear": 826,
      "less": 827,
      "there": 828,
      "Ġnight": 829,
      "Ġworld": 830,
      "gar": 831,
      "Ġma": 832,
      "ower": 833,
      "Ġbefore": 834,
      "Ġboth": 835,
      "aughter": 836,
      "br": 837,
      "when": 838,
      "able": 839,
      "coriolanus": 840,
      "Ġvery": 841,
      "ause": 842,
      "Ġdead": 843,
      "gelo": 844,
      "Ġdown": 845,
      "land": 846,
      "Ġthus": 847,
      "vol": 848,
      "Ġleave": 849,
      "sw": 850,
      "Ġapp": 851,
      "Ġpri": 852,
      "Ġmyself": 853,
      "Ġrem": 854,
      "Ġcont": 855,
      "atch": 856,
      "second": 857,
      "Ġvi": 858,
      "ted": 859,
      "Ġbeing": 860,
      "Ġpres": 861,
      "ham": 862,
      "mar": 863,
      "arence": 864,
      "ction": 865,
      "rong": 866,
      "Ġeyes": 867,
      "Ġaway": 868,
      "broke": 869,
      "Ġim": 870,
      "Ġold": 871,
      "who": 872,
      "Ġmother": 873,
      "Ġpoor": 874,
      "ip": 875,
      "ace": 876,
      "Ġbeg": 877,
      "Ġcons": 878,
      "Ġlong": 879,
      "Ġwife": 880,
      "itiz": 881,
      "Ġgrace": 882,
      "his": 883,
      "Ġlive": 884,
      "Ġchild": 885,
      "ress": 886,
      "Ġaf": 887,
      "Ġprince": 888,
      "Ġle": 889,
      "Ġboling": 890,
      "Ġiii": 891,
      "Ġbolingbroke": 892,
      "Ġmight": 893,
      "Ġwom": 894,
      "atter": 895,
      "Ġcap": 896,
      "Ġkeep": 897,
      "do": 898,
      "ors": 899,
      "ite": 900,
      "Ġstay": 901,
      "Ġgr": 902,
      "eace": 903,
      "ick": 904,
      "sic": 905,
      "Ġdie": 906,
      "ella": 907,
      "abella": 908,
      "ucking": 909,
      "ren": 910,
      "Ġcomes": 911,
      "Ġfriends": 912,
      "ks": 913,
      "Ġcrown": 914,
      "Ġlady": 915,
      "Ġgl": 916,
      "Ġmany": 917,
      "ontes": 918,
      "gre": 919,
      "lady": 920,
      "Ġhouse": 921,
      "Ġfoo": 922,
      "Ġrep": 923,
      "uckingham": 924,
      "cio": 925,
      "oud": 926,
      "ison": 927,
      "Ġrest": 928,
      "aut": 929,
      "Ġtri": 930,
      "Ġcour": 931,
      "iss": 932,
      "isabella": 933,
      "Ġthought": 934,
      "juliet": 935,
      "use": 936,
      "amill": 937,
      "will": 938,
      "Ġset": 939,
      "llow": 940,
      "Ġpe": 941,
      "Ġlie": 942,
      "Ġent": 943,
      "Ġhop": 944,
      "leontes": 945,
      "Ġmur": 946,
      "Ġdaughter": 947,
      "Ġwarwick": 948,
      "ger": 949,
      "ates": 950,
      "Ġgone": 951,
      "Ġres": 952,
      "ranio": 953,
      "Ġbetter": 954,
      "cius": 955,
      "here": 956,
      "unt": 957,
      "Ġtong": 958,
      "Ġdear": 959,
      "Ġgri": 960,
      "Ġnothing": 961,
      "ces": 962,
      "have": 963,
      "war": 964,
      "Ġshow": 965,
      "ittle": 966,
      "tain": 967,
      "Ġcitiz": 968,
      "ia": 969,
      "ied": 970,
      "Ġel": 971,
      "Ġserv": 972,
      "Ġnews": 973,
      "sicinius": 974,
      "Ġmurder": 975,
      "Ġthose": 976,
      "Ġhence": 977,
      "Ġbest": 978,
      "eal": 979,
      "une": 980,
      "Ġcomp": 981,
      "ield": 982,
      "garet": 983,
      "dy": 984,
      "sir": 985,
      "ulet": 986,
      "Ġhour": 987,
      "Ġlittle": 988,
      "ret": 989,
      "Ġagainst": 990,
      "ps": 991,
      "Ġsle": 992,
      "Ġfar": 993,
      "ardon": 994,
      "like": 995,
      "Ġmargaret": 996,
      "Ġtherefore": 997,
      "Ġgentleman": 998,
      "ft": 999,
      "nay": 1000,
      "Ġmaster": 1001,
      "Ġyoun": 1002,
      "red": 1003,
      "Ġstill": 1004,
      "liff": 1005,
      "akes": 1006,
      "Ġend": 1007,
      "orse": 1008,
      "Ġiv": 1009,
      "Ġfirst": 1010,
      "Ġput": 1011,
      "Ġwhy": 1012,
      "Ġkn": 1013,
      "amillo": 1014,
      "good": 1015,
      "was": 1016,
      "Ġea": 1017,
      "Ġthing": 1018,
      "Ġgu": 1019,
      "Ġkind": 1020,
      "cal": 1021,
      "lord": 1022,
      "ins": 1023,
      "ark": 1024,
      "Ġpower": 1025,
      "lucio": 1026,
      "ale": 1027,
      "cious": 1028,
      "lt": 1029,
      "Ġco": 1030,
      "Ġpur": 1031,
      "Ġpeace": 1032,
      "Ġtwo": 1033,
      "bl": 1034,
      "fr": 1035,
      "zab": 1036,
      "Ġacc": 1037,
      "Ġhigh": 1038,
      "Ġeli": 1039,
      "Ġhimself": 1040,
      "Ġface": 1041,
      "Ġchar": 1042,
      "shall": 1043,
      "zabeth": 1044,
      "Ġelizabeth": 1045,
      "henry": 1046,
      "Ġsm": 1047,
      "iness": 1048,
      "arina": 1049,
      "ried": 1050,
      "Ġelse": 1051,
      "ellow": 1052,
      "Ġunto": 1053,
      "Ġsub": 1054,
      "atharina": 1055,
      "Ġtongue": 1056,
      "warwick": 1057,
      "ail": 1058,
      "were": 1059,
      "ought": 1060,
      "Ġsen": 1061,
      "Ġbid": 1062,
      "Ġback": 1063,
      "Ġtill": 1064,
      "eech": 1065,
      "she": 1066,
      "ista": 1067,
      "ect": 1068,
      "Ġhus": 1069,
      "Ġcould": 1070,
      "Ġdre": 1071,
      "Ġhel": 1072,
      "Ġwords": 1073,
      "Ġyoung": 1074,
      "band": 1075,
      "Ġbri": 1076,
      "Ġfind": 1077,
      "Ġlords": 1078,
      "Ġconf": 1079,
      "Ġearth": 1080,
      "ced": 1081,
      "yal": 1082,
      "Ġthine": 1083,
      "anish": 1084,
      "Ġtra": 1085,
      "alk": 1086,
      "Ġneed": 1087,
      "ory": 1088,
      "Ġforth": 1089,
      "apt": 1090,
      "ople": 1091,
      "Ġhope": 1092,
      "aul": 1093,
      "Ġhome": 1094,
      "reat": 1095,
      "Ġromeo": 1096,
      "arewell": 1097,
      "Ġhusband": 1098,
      "cle": 1099,
      "ud": 1100,
      "Ġthough": 1101,
      "Ġright": 1102,
      "istress": 1103,
      "nurse": 1104,
      "ier": 1105,
      "xt": 1106,
      "Ġmind": 1107,
      "ister": 1108,
      "ortens": 1109,
      "Ġfollow": 1110,
      "Ġpeople": 1111,
      "hold": 1112,
      "ot": 1113,
      "tranio": 1114,
      "Ġbra": 1115,
      "Ġla": 1116,
      "ird": 1117,
      "ush": 1118,
      "ason": 1119,
      "Ġonce": 1120,
      "Ġcitizen": 1121,
      "from": 1122,
      "aptista": 1123,
      "Ġru": 1124,
      "Ġtre": 1125,
      "Ġfort": 1126,
      "aint": 1127,
      "umber": 1128,
      "ortensio": 1129,
      "air": 1130,
      "yet": 1131,
      "Ġlaw": 1132,
      "utus": 1133,
      "fort": 1134,
      "they": 1135,
      "Ġhands": 1136,
      "Ġsun": 1137,
      "Ġsaid": 1138,
      "lcome": 1139,
      "Ġnat": 1140,
      "Ġnone": 1141,
      "ousin": 1142,
      "Ġbring": 1143,
      "Ġjoy": 1144,
      "ience": 1145,
      "other": 1146,
      "Ġover": 1147,
      "brutus": 1148,
      "buckingham": 1149,
      "ith": 1150,
      "Ġbes": 1151,
      "Ġdou": 1152,
      "Ġpass": 1153,
      "Ġlight": 1154,
      "Ġevery": 1155,
      "swer": 1156,
      "sed": 1157,
      "sper": 1158,
      "Ġcause": 1159,
      "Ġrome": 1160,
      "Ġcount": 1161,
      "day": 1162,
      "eed": 1163,
      "vost": 1164,
      "Ġhapp": 1165,
      "its": 1166,
      "Ġboy": 1167,
      "Ġty": 1168,
      "Ġtears": 1169,
      "Ġcur": 1170,
      "Ġcame": 1171,
      "Ġwhose": 1172,
      "Ġjust": 1173,
      "ient": 1174,
      "more": 1175,
      "Ġere": 1176,
      "Ġthr": 1177,
      "Ġsince": 1178,
      "Ġfellow": 1179,
      "Ġpardon": 1180,
      "Ġga": 1181,
      "ury": 1182,
      "Ġdev": 1183,
      "vy": 1184,
      "would": 1185,
      "Ġsea": 1186,
      "Ġwrong": 1187,
      "angelo": 1188,
      "Ġtr": 1189,
      "Ġfull": 1190,
      "Ġland": 1191,
      "Ġheard": 1192,
      "Ġshame": 1193,
      "lie": 1194,
      "rumio": 1195,
      "vers": 1196,
      "eel": 1197,
      "Ġpresent": 1198,
      "fid": 1199,
      "Ġmis": 1200,
      "escal": 1201,
      "Ġlast": 1202,
      "Ġanswer": 1203,
      "rich": 1204,
      "Ġmeet": 1205,
      "Ġkill": 1206,
      "Ġstate": 1207,
      "Ġplace": 1208,
      "ague": 1209,
      "lifford": 1210,
      "Ġhelp": 1211,
      "escalus": 1212,
      "katharina": 1213,
      "sand": 1214,
      "Ġhar": 1215,
      "int": 1216,
      "Ġpat": 1217,
      "ompe": 1218,
      "Ġunder": 1219,
      "Ġroyal": 1220,
      "Ġafter": 1221,
      "ompey": 1222,
      "bo": 1223,
      "hath": 1224,
      "ouch": 1225,
      "Ġsorrow": 1226,
      "Ġhold": 1227,
      "Ġmerc": 1228,
      "Ġbanish": 1229,
      "Ġcar": 1230,
      "Ġwhom": 1231,
      "ition": 1232,
      "Ġthousand": 1233,
      "esty": 1234,
      "iv": 1235,
      "jo": 1236,
      "oly": 1237,
      "pl": 1238,
      "enes": 1239,
      "Ġweep": 1240,
      "selves": 1241,
      "Ġplease": 1242,
      "led": 1243,
      "Ġhither": 1244,
      "Ġfal": 1245,
      "Ġless": 1246,
      "Ġpar": 1247,
      "ceive": 1248,
      "utio": 1249,
      "aud": 1250,
      "Ġabout": 1251,
      "Ġeye": 1252,
      "fri": 1253,
      "ged": 1254,
      "ple": 1255,
      "ary": 1256,
      "Ġcousin": 1257,
      "Ġwilt": 1258,
      "ship": 1259,
      "fidius": 1260,
      "bt": 1261,
      "ford": 1262,
      "thumber": 1263,
      "Ġfall": 1264,
      "irt": 1265,
      "Ġbreath": 1266,
      "Ġmaid": 1267,
      "audio": 1268,
      "thumberland": 1269,
      "Ġhate": 1270,
      "Ġinto": 1271,
      "eep": 1272,
      "Ġgracious": 1273,
      "Ġgrief": 1274,
      "cap": 1275,
      "camillo": 1276,
      "ject": 1277,
      "Ġsup": 1278,
      "Ġmakes": 1279,
      "ade": 1280,
      "Ġstri": 1281,
      "Ġdost": 1282,
      "uchess": 1283,
      "Ġfool": 1284,
      "ach": 1285,
      "ca": 1286,
      "cus": 1287,
      "ken": 1288,
      "pose": 1289,
      "Ġhum": 1290,
      "Ġwo": 1291,
      "Ġturn": 1292,
      "asure": 1293,
      "upon": 1294,
      "Ġengl": 1295,
      "aulina": 1296,
      "duchess": 1297,
      "hortensio": 1298,
      "me": 1299,
      "rant": 1300,
      "ting": 1301,
      "vere": 1302,
      "Ġbed": 1303,
      "eter": 1304,
      "Ġmarcius": 1305,
      "Ġplay": 1306,
      "though": 1307,
      "clarence": 1308,
      "Ġsleep": 1309,
      "con": 1310,
      "Ġbus": 1311,
      "Ġwit": 1312,
      "imes": 1313,
      "Ġem": 1314,
      "Ġeven": 1315,
      "Ġbody": 1316,
      "friar": 1317,
      "balt": 1318,
      "morrow": 1319,
      "som": 1320,
      "Ġbu": 1321,
      "Ġseem": 1322,
      "Ġprove": 1323,
      "god": 1324,
      "Ġclarence": 1325,
      "deed": 1326,
      "Ġwoman": 1327,
      "Ġcourt": 1328,
      "Ġfortune": 1329,
      "cy": 1330,
      "hast": 1331,
      "ily": 1332,
      "most": 1333,
      "ten": 1334,
      "Ġau": 1335,
      "Ġsound": 1336,
      "ised": 1337,
      "lix": 1338,
      "Ġfaul": 1339,
      "ices": 1340,
      "Ġmurderer": 1341,
      "Ġtrait": 1342,
      "sp": 1343,
      "take": 1344,
      "Ġinst": 1345,
      "Ġhas": 1346,
      "Ġvo": 1347,
      "Ġsold": 1348,
      "Ġret": 1349,
      "Ġdeed": 1350,
      "herd": 1351,
      "ben": 1352,
      "even": 1353,
      "Ġwish": 1354,
      "Ġfight": 1355,
      "Ġdr": 1356,
      "Ġangelo": 1357,
      "Ġanother": 1358,
      "Ġindeed": 1359,
      "raw": 1360,
      "Ġvill": 1361,
      "Ġcomfort": 1362,
      "Ġsword": 1363,
      "provost": 1364,
      "Ġadv": 1365,
      "volio": 1366,
      "Ġfalse": 1367,
      "vereign": 1368,
      "lixenes": 1369,
      "baptista": 1370,
      "fa": 1371,
      "say": 1372,
      "tend": 1373,
      "Ġuse": 1374,
      "Ġsend": 1375,
      "Ġtalk": 1376,
      "Ġsovereign": 1377,
      "Ġthank": 1378,
      "Ġgrave": 1379,
      "ontague": 1380,
      "Ġrather": 1381,
      "cominius": 1382,
      "olycus": 1383,
      ",'": 1384,
      "merc": 1385,
      "Ġdeli": 1386,
      "pect": 1387,
      "give": 1388,
      "third": 1389,
      "Ġsign": 1390,
      "Ġmatter": 1391,
      "Ġwant": 1392,
      "Ġcare": 1393,
      "Ġreven": 1394,
      "Ġreason": 1395,
      "Ġprison": 1396,
      "fect": 1397,
      "lucentio": 1398,
      "autolycus": 1399,
      "Ġcountry": 1400,
      "lieve": 1401,
      ".'": 1402,
      "fl": 1403,
      "grumio": 1404,
      "Ġyears": 1405,
      "ows": 1406,
      "Ġlies": 1407,
      "Ġvirt": 1408,
      "Ġonly": 1409,
      "Ġarm": 1410,
      "Ġtruth": 1411,
      "prosper": 1412,
      "Ġcapulet": 1413,
      "Ġdream": 1414,
      "ior": 1415,
      "Ġmer": 1416,
      "Ġlay": 1417,
      "Ġpers": 1418,
      "Ġwelcome": 1419,
      "Ġass": 1420,
      "Ġarms": 1421,
      "gainst": 1422,
      "ianca": 1423,
      "Ġdeser": 1424,
      "Ġnature": 1425,
      "benvolio": 1426,
      "look": 1427,
      "ph": 1428,
      "Ġsent": 1429,
      "ener": 1430,
      "rel": 1431,
      "Ġshalt": 1432,
      "Ġspir": 1433,
      "umn": 1434,
      "Ġmadam": 1435,
      "clown": 1436,
      "Ġcommon": 1437,
      "Ġcommand": 1438,
      "Ġholy": 1439,
      "Ġbusiness": 1440,
      "mercutio": 1441,
      "Ġhang": 1442,
      "esh": 1443,
      "ator": 1444,
      "Ġgi": 1445,
      "ender": 1446,
      "Ġprom": 1447,
      "Ġenough": 1448,
      "Ġswear": 1449,
      "Ġlaur": 1450,
      "Ġhappy": 1451,
      "prospero": 1452,
      "dd": 1453,
      "ili": 1454,
      "Ġwind": 1455,
      "Ġfree": 1456,
      "Ġfarewell": 1457,
      "Ġpity": 1458,
      "Ġstran": 1459,
      "Ġproud": 1460,
      "Ġremem": 1461,
      "Ġcontent": 1462,
      "Ġdoubt": 1463,
      "Ġvillain": 1464,
      "Ġlaurence": 1465,
      "Ġmistress": 1466,
      "any": 1467,
      "ange": 1468,
      "Ġget": 1469,
      "uty": 1470,
      "Ġkate": 1471,
      "Ġkiss": 1472,
      "Ġlives": 1473,
      "Ġval": 1474,
      "Ġbeseech": 1475,
      "ec": 1476,
      "pompey": 1477,
      "paulina": 1478,
      "york": 1479,
      "Ġthree": 1480,
      "ertain": 1481,
      "Ġwatch": 1482,
      "Ġcity": 1483,
      "Ġbeaut": 1484,
      "ute": 1485,
      "Ġwithin": 1486,
      "Ġsaw": 1487,
      "Ġgods": 1488,
      "gremio": 1489,
      "Ġsister": 1490,
      "erle": 1491,
      "Ġfoul": 1492,
      "Ġlam": 1493,
      "Ġob": 1494,
      "Ġdep": 1495,
      "Ġfriar": 1496,
      "Ġserving": 1497,
      "Ġservant": 1498,
      "can": 1499,
      "think": 1500,
      "Ġwin": 1501,
      "Ġden": 1502,
      "Ġyield": 1503,
      "Ġoath": 1504,
      "Ġanne": 1505,
      "Ġwhile": 1506,
      "Ġyours": 1507,
      "gether": 1508,
      "Ġmark": 1509,
      "onder": 1510,
      "polixenes": 1511,
      "northumberland": 1512,
      "Ġmeans": 1513,
      "Ġsubject": 1514,
      "umnia": 1515,
      "ser": 1516,
      "Ġthings": 1517,
      "Ġhorse": 1518,
      "Ġborn": 1519,
      "anc": 1520,
      "usic": 1521,
      "Ġkne": 1522,
      "Ġstra": 1523,
      "Ġspo": 1524,
      "Ġdisc": 1525,
      "Ġbloody": 1526,
      "Ġlooks": 1527,
      "volumnia": 1528,
      "richard": 1529,
      "cause": 1530,
      "some": 1531,
      "thes": 1532,
      "Ġsit": 1533,
      "Ġwound": 1534,
      "ench": 1535,
      "enger": 1536,
      "Ġtem": 1537,
      "Ġfire": 1538,
      "Ġcra": 1539,
      "oman": 1540,
      "stand": 1541,
      "Ġyourself": 1542,
      "Ġfaith": 1543,
      "should": 1544,
      "Ġmaj": 1545,
      "hastings": 1546,
      "Ġtraitor": 1547,
      "Ġservingman": 1548,
      "les": 1549,
      "par": 1550,
      "ues": 1551,
      "Ġsin": 1552,
      "Ġbar": 1553,
      "Ġdang": 1554,
      "unes": 1555,
      "essenger": 1556,
      "form": 1557,
      "Ġcond": 1558,
      "Ġbreak": 1559,
      "Ġimp": 1560,
      "Ġchildren": 1561,
      "bra": 1562,
      "Ġaum": 1563,
      "Ġaff": 1564,
      "erous": 1565,
      "Ġop": 1566,
      "Ġbeat": 1567,
      "rit": 1568,
      "Ġrequ": 1569,
      "Ġuncle": 1570,
      "Ġgaunt": 1571,
      "Ġwoe": 1572,
      "Ġmajesty": 1573,
      "Ġaumerle": 1574,
      "ah": 1575,
      "dell": 1576,
      "hn": 1577,
      "tell": 1578,
      "Ġseen": 1579,
      "Ġtender": 1580,
      "Ġcor": 1581,
      "Ġlate": 1582,
      "Ġlef": 1583,
      "Ġpain": 1584,
      "Ġtold": 1585,
      "Ġsoon": 1586,
      "iondell": 1587,
      "Ġche": 1588,
      "Ġsure": 1589,
      "Ġsave": 1590,
      "Ġdays": 1591,
      "Ġmercy": 1592,
      "Ġengland": 1593,
      "Ġleft": 1594,
      "iondello": 1595,
      "aim": 1596,
      "did": 1597,
      "had": 1598,
      "ial": 1599,
      "mer": 1600,
      "may": 1601,
      "Ġsight": 1602,
      "Ġmon": 1603,
      "oriz": 1604,
      "Ġgener": 1605,
      "ides": 1606,
      "Ġdoes": 1607,
      "thee": 1608,
      "Ġgold": 1609,
      "Ġbless": 1610,
      "olk": 1611,
      "atesby": 1612,
      "retch": 1613,
      "Ġreturn": 1614,
      "Ġperson": 1615,
      "dom": 1616,
      "Ġsad": 1617,
      "Ġmet": 1618,
      "Ġill": 1619,
      "Ġfe": 1620,
      "Ġfit": 1621,
      "Ġnear": 1622,
      "ours": 1623,
      "ash": 1624,
      "ters": 1625,
      "Ġmarry": 1626,
      "Ġwarrant": 1627,
      "Ġheavy": 1628,
      "prince": 1629,
      "Ġthrough": 1630,
      "folk": 1631,
      "gth": 1632,
      "get": 1633,
      "Ġhun": 1634,
      "Ġmusic": 1635,
      "Ġtouch": 1636,
      "Ġcold": 1637,
      "Ġpet": 1638,
      "Ġtogether": 1639,
      "Ġgrow": 1640,
      "Ġbelieve": 1641,
      "enty": 1642,
      "ross": 1643,
      "Ġsuff": 1644,
      "Ġgrey": 1645,
      "ments": 1646,
      "capulet": 1647,
      "fer": 1648,
      "mion": 1649,
      "mond": 1650,
      "night": 1651,
      "outh": 1652,
      "Ġmin": 1653,
      "Ġtit": 1654,
      "Ġtimes": 1655,
      "ater": 1656,
      "ceed": 1657,
      "ents": 1658,
      "Ġwithout": 1659,
      "whose": 1660,
      "while": 1661,
      "Ġthyself": 1662,
      "earn": 1663,
      "Ġlost": 1664,
      "Ġdef": 1665,
      "Ġreport": 1666,
      "Ġliege": 1667,
      "Ġpurpose": 1668,
      "Ġspirit": 1669,
      "orizel": 1670,
      "mione": 1671,
      "bast": 1672,
      "Ġair": 1673,
      "Ġage": 1674,
      "Ġlearn": 1675,
      "Ġdeep": 1676,
      "Ġheir": 1677,
      "Ġwear": 1678,
      "Ġloss": 1679,
      "aufidius": 1680,
      "Ġsays": 1681,
      "Ġhaste": 1682,
      "therefore": 1683,
      "Ġfoot": 1684,
      "Ġjustice": 1685,
      "Ġstrange": 1686,
      "Ġremember": 1687,
      "gs": 1688,
      "gon": 1689,
      "ner": 1690,
      "Ġsil": 1691,
      "Ġhard": 1692,
      "Ġfly": 1693,
      "Ġcry": 1694,
      "Ġclifford": 1695,
      "Ġlu": 1696,
      "rew": 1697,
      "oop": 1698,
      "shep": 1699,
      "Ġjuliet": 1700,
      "Ġpluck": 1701,
      "Ġtrust": 1702,
      "Ġears": 1703,
      "marcius": 1704,
      "Ġground": 1705,
      "Ġentreat": 1706,
      "Ġdevil": 1707,
      "these": 1708,
      "ha": 1709,
      "ible": 1710,
      "ined": 1711,
      "Ġnurse": 1712,
      "Ġpast": 1713,
      "Ġtoward": 1714,
      "set": 1715,
      "oot": 1716,
      "cks": 1717,
      "Ġvis": 1718,
      "Ġfast": 1719,
      "Ġrun": 1720,
      "Ġfrance": 1721,
      "Ġsuit": 1722,
      "Ġbold": 1723,
      "Ġworthy": 1724,
      "Ġslain": 1725,
      "Ġfault": 1726,
      "Ġstraight": 1727,
      "shepherd": 1728,
      "against": 1729,
      "bid": 1730,
      "emy": 1731,
      "iet": 1732,
      "vo": 1733,
      "Ġord": 1734,
      "Ġwa": 1735,
      "Ġwoo": 1736,
      "Ġbat": 1737,
      "Ġca": 1738,
      "Ġwid": 1739,
      "ley": 1740,
      "Ġhal": 1741,
      "Ġstrong": 1742,
      "Ġcanst": 1743,
      "ured": 1744,
      "Ġquick": 1745,
      "Ġalone": 1746,
      "Ġlew": 1747,
      "Ġservice": 1748,
      "Ġinstru": 1749,
      "florizel": 1750,
      "ilia": 1751,
      "Ġbeauty": 1752,
      "bastian": 1753,
      "su": 1754,
      "vent": 1755,
      "Ġfound": 1756,
      "Ġye": 1757,
      "oward": 1758,
      "each": 1759,
      "Ġready": 1760,
      "very": 1761,
      "Ġjud": 1762,
      "Ġenemy": 1763,
      "Ġposs": 1764,
      "got": 1765,
      "Ġbrought": 1766,
      "Ġsenator": 1767,
      "Ġrevenge": 1768,
      "Ġgeneral": 1769,
      "!'": 1770,
      "af": 1771,
      "cess": 1772,
      "ning": 1773,
      "sue": 1774,
      "Ġsur": 1775,
      "onio": 1776,
      "Ġduty": 1777,
      "cept": 1778,
      "ution": 1779,
      "Ġitself": 1780,
      "Ġask": 1781,
      "Ġlose": 1782,
      "Ġmarried": 1783,
      "Ġknows": 1784,
      "Ġquar": 1785,
      "Ġdesire": 1786,
      "pray": 1787,
      "Ġgrant": 1788,
      "Ġthoughts": 1789,
      "Ġcharge": 1790,
      "Ġconfess": 1791,
      "Ġtybalt": 1792,
      "bs": 1793,
      "bow": 1794,
      "ls": 1795,
      "ove": 1796,
      "ua": 1797,
      "wer": 1798,
      "Ġsaint": 1799,
      "Ġmorn": 1800,
      "Ġmontague": 1801,
      "Ġbon": 1802,
      "Ġta": 1803,
      "Ġten": 1804,
      "Ġbehold": 1805,
      "see": 1806,
      "sebastian": 1807,
      "riage": 1808,
      "Ġstren": 1809,
      "Ġven": 1810,
      "Ġred": 1811,
      "Ġread": 1812,
      "Ġspeed": 1813,
      "Ġworth": 1814,
      "Ġprof": 1815,
      "Ġstands": 1816,
      "Ġtwenty": 1817,
      "Ġhours": 1818,
      "Ġhalf": 1819,
      "biondello": 1820,
      "ges": 1821,
      "hap": 1822,
      "mir": 1823,
      "till": 1824,
      "xford": 1825,
      "Ġfur": 1826,
      "Ġfield": 1827,
      "Ġdish": 1828,
      "Ġdiv": 1829,
      "Ġyouth": 1830,
      "Ġhell": 1831,
      "alo": 1832,
      "iles": 1833,
      "fection": 1834,
      "Ġpost": 1835,
      "Ġhastings": 1836,
      "Ġexec": 1837,
      "Ġdesp": 1838,
      "away": 1839,
      "Ġfearful": 1840,
      "Ġcounsel": 1841,
      "bes": 1842,
      "dle": 1843,
      "hear": 1844,
      "mad": 1845,
      "Ġwretch": 1846,
      "Ġbuckingham": 1847,
      "Ġter": 1848,
      "ars": 1849,
      "Ġfea": 1850,
      "Ġclo": 1851,
      "rem": 1852,
      "right": 1853,
      "Ġbosom": 1854,
      "Ġmarriage": 1855,
      "Ġplain": 1856,
      "ortal": 1857,
      "Ġhearts": 1858,
      "Ġclaudio": 1859,
      "Ġresol": 1860,
      "Ġeach": 1861,
      "Ġguil": 1862,
      "serv": 1863,
      "bury": 1864,
      "cre": 1865,
      "done": 1866,
      "ex": 1867,
      "farewell": 1868,
      "ix": 1869,
      "ses": 1870,
      "zalo": 1871,
      "Ġve": 1872,
      "Ġbit": 1873,
      "Ġbound": 1874,
      "Ġburn": 1875,
      "Ġtale": 1876,
      "Ġcut": 1877,
      "Ġlad": 1878,
      "Ġdam": 1879,
      "Ġdraw": 1880,
      "ready": 1881,
      "ead": 1882,
      "roth": 1883,
      "rah": 1884,
      "Ġvol": 1885,
      "ions": 1886,
      "antonio": 1887,
      "ount": 1888,
      "Ġattend": 1889,
      "Ġmock": 1890,
      "Ġknown": 1891,
      "being": 1892,
      "claudio": 1893,
      "Ġhonest": 1894,
      "Ġserve": 1895,
      "Ġflatter": 1896,
      "Ġgloucester": 1897,
      "Ġcompany": 1898,
      "Ġhighness": 1899,
      "Ġharm": 1900,
      "Ġstrike": 1901,
      "Ġopen": 1902,
      "Ġlewis": 1903,
      "madam": 1904,
      "bly": 1905,
      "call": 1906,
      "clifford": 1907,
      "sc": 1908,
      "Ġsat": 1909,
      "Ġside": 1910,
      "Ġwed": 1911,
      "Ġwonder": 1912,
      "orge": 1913,
      "Ġfour": 1914,
      "Ġbeh": 1915,
      "Ġshort": 1916,
      "alm": 1917,
      "under": 1918,
      "Ġloving": 1919,
      "wixt": 1920,
      "ween": 1921,
      "Ġwork": 1922,
      "Ġpoint": 1923,
      "Ġsomething": 1924,
      "Ġgentlemen": 1925,
      "hermione": 1926,
      "Ġheavens": 1927,
      "marry": 1928,
      "Ġvoices": 1929,
      "Ġdeliver": 1930,
      "Ġstrength": 1931,
      "ped": 1932,
      "ring": 1933,
      "ze": 1934,
      "Ġact": 1935,
      "Ġsake": 1936,
      "Ġwast": 1937,
      "Ġcast": 1938,
      "Ġlanc": 1939,
      "Ġnay": 1940,
      "irg": 1941,
      "Ġstir": 1942,
      "Ġnext": 1943,
      "Ġenem": 1944,
      "Ġdidst": 1945,
      "Ġcloud": 1946,
      "Ġpleas": 1947,
      "Ġwomen": 1948,
      "Ġenter": 1949,
      "Ġcheer": 1950,
      "gonzalo": 1951,
      "Ġwidow": 1952,
      "Ġlancaster": 1953,
      "Ġenemies": 1954,
      "bear": 1955,
      "catesby": 1956,
      "iers": 1957,
      "make": 1958,
      "thus": 1959,
      "Ġac": 1960,
      "Ġsing": 1961,
      "Ġsom": 1962,
      "ated": 1963,
      "Ġcamillo": 1964,
      "Ġdare": 1965,
      "Ġpra": 1966,
      "Ġpie": 1967,
      "Ġpale": 1968,
      "Ġtower": 1969,
      "Ġgar": 1970,
      "Ġgates": 1971,
      "anda": 1972,
      "ays": 1973,
      "ita": 1974,
      "oose": 1975,
      "Ġwithal": 1976,
      "Ġchange": 1977,
      "Ġunt": 1978,
      "ils": 1979,
      "Ġcoming": 1980,
      "Ġseek": 1981,
      "Ġthanks": 1982,
      "Ġplant": 1983,
      "Ġlead": 1984,
      "posed": 1985,
      "Ġpleasure": 1986,
      "Ġsouls": 1987,
      "Ġtrib": 1988,
      "Ġcourse": 1989,
      "Ġbrave": 1990,
      "ceived": 1991,
      "Ġknew": 1992,
      "Ġsuffer": 1993,
      "Ġtitle": 1994,
      "Ġorder": 1995,
      "kes": 1996,
      "such": 1997,
      "twas": 1998,
      "Ġsel": 1999,
      "Ġmow": 2000,
      "Ġweak": 2001,
      "Ġwrit": 2002,
      "Ġbur": 2003,
      "Ġge": 2004,
      "Ġbecome": 2005,
      "ets": 2006,
      "etch": 2007,
      "Ġeither": 2008,
      "unk": 2009,
      "ally": 2010,
      "Ġlips": 2011,
      "Ġchee": 2012,
      "Ġjest": 2013,
      "claim": 2014,
      "Ġoffic": 2015,
      "Ġdisp": 2016,
      "Ġabs": 2017,
      "Ġnorfolk": 2018,
      "Ġconsul": 2019,
      "Ġgrie": 2020,
      "speak": 2021,
      "cur": 2022,
      "coun": 2023,
      "gra": 2024,
      "hood": 2025,
      "os": 2026,
      "since": 2027,
      "tru": 2028,
      "twere": 2029,
      "Ġsk": 2030,
      "Ġsame": 2031,
      "Ġsick": 2032,
      "Ġwall": 2033,
      "Ġbad": 2034,
      "Ġbianca": 2035,
      "ats": 2036,
      "Ġanc": 2037,
      "ander": 2038,
      "irth": 2039,
      "ries": 2040,
      "Ġissue": 2041,
      "Ġforget": 2042,
      "oof": 2043,
      "Ġev": 2044,
      "Ġcham": 2045,
      "ilst": 2046,
      "Ġthemselves": 2047,
      "Ġworse": 2048,
      "Ġpoison": 2049,
      "before": 2050,
      "Ġtook": 2051,
      "ians": 2052,
      "Ġalong": 2053,
      "Ġbreast": 2054,
      "Ġpret": 2055,
      "Ġremain": 2056,
      "Ġpatience": 2057,
      "Ġmerry": 2058,
      "miranda": 2059,
      "servant": 2060,
      "ding": 2061,
      "dita": 2062,
      "gentle": 2063,
      "know": 2064,
      "mit": 2065,
      "messenger": 2066,
      "sa": 2067,
      "vour": 2068,
      "Ġthri": 2069,
      "Ġmouth": 2070,
      "Ġwise": 2071,
      "Ġbook": 2072,
      "anley": 2073,
      "Ġcurse": 2074,
      "Ġdu": 2075,
      "Ġph": 2076,
      "Ġgave": 2077,
      "omas": 2078,
      "Ġinter": 2079,
      "used": 2080,
      "Ġliber": 2081,
      "Ġmove": 2082,
      "rows": 2083,
      "Ġblack": 2084,
      "Ġhereford": 2085,
      "Ġworship": 2086,
      "Ġoffice": 2087,
      "Ġalready": 2088,
      "Ġsec": 2089,
      "bray": 2090,
      "Ġappear": 2091,
      "Ġsoldier": 2092,
      "Ġsignior": 2093,
      "Ġvirtue": 2094,
      "Ġgiven": 2095,
      "Ġbattle": 2096,
      "after": 2097,
      "Ġmorning": 2098,
      "Ġfurther": 2099,
      "Ġself": 2100,
      "des": 2101,
      "full": 2102,
      "gry": 2103,
      "mb": 2104,
      "must": 2105,
      "master": 2106,
      "ock": 2107,
      "ert": 2108,
      "Ġgro": 2109,
      "alth": 2110,
      "alas": 2111,
      "unless": 2112,
      "Ġstop": 2113,
      "Ġver": 2114,
      "Ġsoft": 2115,
      "Ġspeech": 2116,
      "Ġgoes": 2117,
      "Ġfrown": 2118,
      "Ġsucc": 2119,
      "ief": 2120,
      "Ġusur": 2121,
      "because": 2122,
      "Ġsons": 2123,
      "iana": 2124,
      "Ġext": 2125,
      "Ġsworn": 2126,
      "pos": 2127,
      "Ġbetween": 2128,
      "Ġfoe": 2129,
      "comes": 2130,
      "Ġbegin": 2131,
      "Ġconsent": 2132,
      "Ġtrou": 2133,
      "Ġsoldiers": 2134,
      "dden": 2135,
      "Ġrequest": 2136,
      "Ġlucentio": 2137,
      "Ġquarrel": 2138,
      "Ġfeast": 2139,
      "Ġsatis": 2140,
      "Ġtribunes": 2141,
      "Ġmowbray": 2142,
      "bed": 2143,
      "bianca": 2144,
      "dis": 2145,
      "Ġthence": 2146,
      "Ġwater": 2147,
      "Ġben": 2148,
      "ons": 2149,
      "lly": 2150,
      "Ġcr": 2151,
      "Ġcle": 2152,
      "Ġdro": 2153,
      "Ġdire": 2154,
      "Ġdark": 2155,
      "owers": 2156,
      "Ġinf": 2157,
      "ires": 2158,
      "ool": 2159,
      "whom": 2160,
      "urch": 2161,
      "their": 2162,
      "light": 2163,
      "Ġreg": 2164,
      "ends": 2165,
      "Ġloves": 2166,
      "Ġsum": 2167,
      "iel": 2168,
      "empt": 2169,
      "Ġclose": 2170,
      "Ġpriv": 2171,
      "Ġvict": 2172,
      "Ġpresence": 2173,
      "Ġdread": 2174,
      "both": 2175,
      "john": 2176,
      "Ġaufidius": 2177,
      "Ġwounds": 2178,
      "Ġdangerous": 2179,
      "Ġvisit": 2180,
      "Ġbitter": 2181,
      "gu": 2182,
      "iant": 2183,
      "lest": 2184,
      "long": 2185,
      "mistress": 2186,
      "rat": 2187,
      "uous": 2188,
      "yes": 2189,
      "Ġsigh": 2190,
      "ern": 2191,
      "Ġwis": 2192,
      "Ġbow": 2193,
      "Ġbaw": 2194,
      "onour": 2195,
      "Ġfeel": 2196,
      "Ġcase": 2197,
      "Ġlond": 2198,
      "Ġdar": 2199,
      "Ġpen": 2200,
      "Ġhaving": 2201,
      "irm": 2202,
      "rivers": 2203,
      "ended": 2204,
      "Ġgot": 2205,
      "Ġchr": 2206,
      "Ġneither": 2207,
      "nock": 2208,
      "Ġkings": 2209,
      "augh": 2210,
      "Ġmarch": 2211,
      "bey": 2212,
      "off": 2213,
      "Ġwars": 2214,
      "Ġhot": 2215,
      "Ġprithee": 2216,
      "Ġmighty": 2217,
      "Ġrespect": 2218,
      "Ġbride": 2219,
      "Ġbrief": 2220,
      "Ġthrone": 2221,
      "Ġvoice": 2222,
      "Ġdeny": 2223,
      "Ġspoke": 2224,
      "Ġpossess": 2225,
      "Ġlondon": 2226,
      "mpet": 2227,
      "over": 2228,
      "Ġest": 2229,
      "erset": 2230,
      "Ġhur": 2231,
      "Ġmal": 2232,
      "Ġmortal": 2233,
      "Ġble": 2234,
      "Ġbab": 2235,
      "Ġcross": 2236,
      "Ġpu": 2237,
      "Ġtown": 2238,
      "read": 2239,
      "Ġgall": 2240,
      "Ġoften": 2241,
      "eath": 2242,
      "Ġstu": 2243,
      "ided": 2244,
      "Ġvow": 2245,
      "live": 2246,
      "vern": 2247,
      "eem": 2248,
      "Ġprin": 2249,
      "Ġsudden": 2250,
      "artius": 2251,
      "Ġwash": 2252,
      "ishop": 2253,
      "Ġloved": 2254,
      "Ġseems": 2255,
      "Ġrichmond": 2256,
      "Ġprot": 2257,
      "Ġsafe": 2258,
      "aken": 2259,
      "ired": 2260,
      "tybalt": 2261,
      "Ġjoin": 2262,
      "Ġprincely": 2263,
      "Ġparis": 2264,
      "Ġbuy": 2265,
      "Ġdeeds": 2266,
      "Ġpromise": 2267,
      "Ġvaliant": 2268,
      "Ġgeorge": 2269,
      "Ġancient": 2270,
      "Ġchamber": 2271,
      "athe": 2272,
      "cliff": 2273,
      "ever": 2274,
      "mand": 2275,
      "pardon": 2276,
      "Ġmist": 2277,
      "Ġbaptista": 2278,
      "ans": 2279,
      "Ġfetch": 2280,
      "Ġcoward": 2281,
      "Ġlim": 2282,
      "Ġdra": 2283,
      "Ġpay": 2284,
      "Ġforward": 2285,
      "ider": 2286,
      "Ġroman": 2287,
      "antage": 2288,
      "oney": 2289,
      "Ġmoon": 2290,
      "Ġkingdom": 2291,
      "welcome": 2292,
      "umph": 2293,
      "emn": 2294,
      "Ġsac": 2295,
      "Ġoffer": 2296,
      "elbow": 2297,
      "Ġrage": 2298,
      "Ġscar": 2299,
      "Ġscorn": 2300,
      "Ġheads": 2301,
      "Ġbeggar": 2302,
      "Ġpatient": 2303,
      "joy": 2304,
      "Ġwitness": 2305,
      "Ġlament": 2306,
      "Ġsuccess": 2307,
      "ether": 2308,
      "iest": 2309,
      "mine": 2310,
      "montague": 2311,
      "Ġthrow": 2312,
      "Ġaction": 2313,
      "Ġig": 2314,
      "Ġtranio": 2315,
      "Ġfi": 2316,
      "Ġcol": 2317,
      "Ġlack": 2318,
      "Ġdest": 2319,
      "Ġdru": 2320,
      "Ġdist": 2321,
      "Ġopp": 2322,
      "Ġpit": 2323,
      "Ġant": 2324,
      "vel": 2325,
      "Ġint": 2326,
      "ooth": 2327,
      "Ġkins": 2328,
      "Ġeat": 2329,
      "ures": 2330,
      "Ġviol": 2331,
      "rust": 2332,
      "Ġatt": 2333,
      "hem": 2334,
      "Ġproceed": 2335,
      "Ġleast": 2336,
      "Ġflesh": 2337,
      "Ġprayers": 2338,
      "Ġslave": 2339,
      "Ġappro": 2340,
      "Ġtriumph": 2341,
      "bles": 2342,
      "Ġemp": 2343,
      "Ġpetruchio": 2344,
      "just": 2345,
      "vest": 2346,
      "yea": 2347,
      "Ġthither": 2348,
      "Ġhide": 2349,
      "ines": 2350,
      "Ġmid": 2351,
      "Ġbase": 2352,
      "Ġtor": 2353,
      "Ġfie": 2354,
      "Ġcertain": 2355,
      "eds": 2356,
      "Ġbeast": 2357,
      "ural": 2358,
      "force": 2359,
      "feit": 2360,
      "umb": 2361,
      "aked": 2362,
      "Ġalmost": 2363,
      "Ġsmall": 2364,
      "Ġpresently": 2365,
      "Ġfaults": 2366,
      "Ġdepart": 2367,
      "Ġsubjects": 2368,
      "irgilia": 2369,
      "Ġofficer": 2370,
      "Ġsatisf": 2371,
      "ac": 2372,
      "az": 2373,
      "aid": 2374,
      "gg": 2375,
      "gue": 2376,
      "mon": 2377,
      "made": 2378,
      "peace": 2379,
      "sly": 2380,
      "sweet": 2381,
      "too": 2382,
      "virgilia": 2383,
      "Ġay": 2384,
      "inted": 2385,
      "Ġmild": 2386,
      "Ġmatch": 2387,
      "Ġwert": 2388,
      "Ġbirth": 2389,
      "ank": 2390,
      "Ġtear": 2391,
      "onus": 2392,
      "Ġfill": 2393,
      "Ġfond": 2394,
      "Ġcal": 2395,
      "Ġcoriolanus": 2396,
      "Ġcreat": 2397,
      "Ġlab": 2398,
      "inger": 2399,
      "Ġwhence": 2400,
      "Ġmeasure": 2401,
      "Ġform": 2402,
      "Ġstru": 2403,
      "amed": 2404,
      "Ġliving": 2405,
      "Ġchance": 2406,
      "Ġchang": 2407,
      "Ġchurch": 2408,
      "asters": 2409,
      "Ġfresh": 2410,
      "Ġgoodly": 2411,
      "igonus": 2412,
      "Ġtrumpet": 2413,
      "Ġhadst": 2414,
      "perate": 2415,
      "perdita": 2416,
      "Ġhearing": 2417,
      "Ġearl": 2418,
      "Ġperform": 2419,
      "Ġslaughter": 2420,
      "Ġknee": 2421,
      "Ġeas": 2422,
      "ledge": 2423,
      "Ġdrink": 2424,
      "Ġvirtuous": 2425,
      "Ġdefend": 2426,
      "Ġquickly": 2427,
      "Ġguilty": 2428,
      "Ġdamn": 2429,
      "fully": 2430,
      "Ġbawd": 2431,
      "hemia": 2432,
      "gi": 2433,
      "lay": 2434,
      "nard": 2435,
      "pri": 2436,
      "ror": 2437,
      "res": 2438,
      "rest": 2439,
      "son": 2440,
      "val": 2441,
      "Ġut": 2442,
      "Ġawhile": 2443,
      "Ġswi": 2444,
      "Ġmed": 2445,
      "Ġwea": 2446,
      "eness": 2447,
      "isure": 2448,
      "Ġoxford": 2449,
      "Ġpompey": 2450,
      "Ġangry": 2451,
      "Ġwild": 2452,
      "Ġins": 2453,
      "Ġinno": 2454,
      "utland": 2455,
      "ities": 2456,
      "Ġef": 2457,
      "Ġstor": 2458,
      "ames": 2459,
      "ament": 2460,
      "amps": 2461,
      "lic": 2462,
      "Ġrever": 2463,
      "iled": 2464,
      "abel": 2465,
      "ustom": 2466,
      "Ġblow": 2467,
      "Ġblows": 2468,
      "Ġmayor": 2469,
      "Ġquiet": 2470,
      "Ġprosper": 2471,
      "Ġoffence": 2472,
      "press": 2473,
      "mariana": 2474,
      "Ġaffection": 2475,
      "Ġkeeper": 2476,
      "doth": 2477,
      "Ġglad": 2478,
      "Ġslew": 2479,
      "Ġlawful": 2480,
      "Ġweeping": 2481,
      "Ġdeserved": 2482,
      "happ": 2483,
      "Ġexecution": 2484,
      "Ġladies": 2485,
      "Ġpretty": 2486,
      "Ġusurp": 2487,
      "could": 2488,
      "den": 2489,
      "draw": 2490,
      "fall": 2491,
      "gle": 2492,
      "him": 2493,
      "ked": 2494,
      "pare": 2495,
      "rous": 2496,
      "ual": 2497,
      "vincentio": 2498,
      "wo": 2499,
      "wor": 2500,
      "zen": 2501,
      "thor": 2502,
      "Ġsus": 2503,
      "ariel": 2504,
      "Ġyear": 2505,
      "Ġocc": 2506,
      "Ġpal": 2507,
      "ster": 2508,
      "stay": 2509,
      "ands": 2510,
      "Ġhap": 2511,
      "ric": 2512,
      "Ġshad": 2513,
      "Ġisabel": 2514,
      "Ġforsw": 2515,
      "Ġforbid": 2516,
      "Ġnote": 2517,
      "Ġkatharina": 2518,
      "Ġknock": 2519,
      "adua": 2520,
      "unto": 2521,
      "Ġstre": 2522,
      "Ġstain": 2523,
      "ards": 2524,
      "Ġdoom": 2525,
      "Ġreign": 2526,
      "rupt": 2527,
      "Ġrough": 2528,
      "Ġourselves": 2529,
      "aste": 2530,
      "Ġneck": 2531,
      "wel": 2532,
      "Ġwouldst": 2533,
      "Ġletters": 2534,
      "Ġworst": 2535,
      "Ġspeaks": 2536,
      "agen": 2537,
      "ize": 2538,
      "Ġfled": 2539,
      "ighb": 2540,
      "Ġgreater": 2541,
      "Ġleisure": 2542,
      "Ġshows": 2543,
      "Ġcitizens": 2544,
      "Ġkneel": 2545,
      "Ġsense": 2546,
      "Ġtreason": 2547,
      "Ġbanishment": 2548,
      "Ġenglish": 2549,
      "paris": 2550,
      "Ġcondemn": 2551,
      "Ġdishonour": 2552,
      "Ġclouds": 2553,
      "counter": 2554,
      "Ġliberty": 2555,
      "Ġchrist": 2556,
      ":'": 2557,
      "aff": 2558,
      "awn": 2559,
      "acle": 2560,
      "bit": 2561,
      "cont": 2562,
      "citiz": 2563,
      "cience": 2564,
      "dred": 2565,
      "eous": 2566,
      "house": 2567,
      "kind": 2568,
      "put": 2569,
      "port": 2570,
      "pherd": 2571,
      "ray": 2572,
      "Ġx": 2573,
      "Ġur": 2574,
      "Ġsort": 2575,
      "Ġmorrow": 2576,
      "Ġmessenger": 2577,
      "Ġwr": 2578,
      "Ġwon": 2579,
      "Ġwalk": 2580,
      "Ġteach": 2581,
      "arge": 2582,
      "Ġfive": 2583,
      "Ġcru": 2584,
      "Ġlist": 2585,
      "Ġdry": 2586,
      "Ġodd": 2587,
      "Ġobey": 2588,
      "vey": 2589,
      "Ġbecause": 2590,
      "Ġnoise": 2591,
      "cher": 2592,
      "Ġind": 2593,
      "Ġheld": 2594,
      "Ġshed": 2595,
      "Ġmethink": 2596,
      "Ġsteel": 2597,
      "Ġlived": 2598,
      "Ġvain": 2599,
      "Ġaside": 2600,
      "Ġdog": 2601,
      "Ġrec": 2602,
      "Ġlod": 2603,
      "Ġcho": 2604,
      "Ġchoose": 2605,
      "Ġbohemia": 2606,
      "Ġconqu": 2607,
      "ape": 2608,
      "oler": 2609,
      "Ġshepherd": 2610,
      "Ġletter": 2611,
      "ounds": 2612,
      "Ġgreen": 2613,
      "Ġabove": 2614,
      "Ġbreathe": 2615,
      "Ġseat": 2616,
      "Ġsecond": 2617,
      "Ġjohn": 2618,
      "Ġlonger": 2619,
      "Ġwomb": 2620,
      "Ġneeds": 2621,
      "Ġlaid": 2622,
      "Ġembra": 2623,
      "faith": 2624,
      "Ġprisoner": 2625,
      "Ġgolden": 2626,
      "Ġbehind": 2627,
      "Ġpiece": 2628,
      "Ġdispatch": 2629,
      "Ġsecret": 2630,
      "position": 2631,
      "ratcliff": 2632,
      "Ġignor": 2633,
      "nardine": 2634,
      "agenet": 2635,
      "!--": 2636,
      "'re": 2637,
      "aves": 2638,
      "bishop": 2639,
      "ging": 2640,
      "hark": 2641,
      "ib": 2642,
      "lartius": 2643,
      "pre": 2644,
      "sign": 2645,
      "Ġthreat": 2646,
      "Ġsch": 2647,
      "Ġsim": 2648,
      "Ġsour": 2649,
      "Ġsli": 2650,
      "Ġseal": 2651,
      "Ġhat": 2652,
      "Ġhortensio": 2653,
      "Ġmut": 2654,
      "Ġmant": 2655,
      "Ġwench": 2656,
      "Ġbig": 2657,
      "arch": 2658,
      "ona": 2659,
      "Ġfat": 2660,
      "Ġfam": 2661,
      "Ġfine": 2662,
      "ators": 2663,
      "Ġlen": 2664,
      "Ġlow": 2665,
      "Ġlust": 2666,
      "Ġdrown": 2667,
      "Ġnap": 2668,
      "Ġpadua": 2669,
      "ingly": 2670,
      "Ġoft": 2671,
      "ches": 2672,
      "ceit": 2673,
      "Ġforgot": 2674,
      "asion": 2675,
      "roy": 2676,
      "Ġyourselves": 2677,
      "Ġstood": 2678,
      "Ġstep": 2679,
      "ords": 2680,
      "urs": 2681,
      "Ġsole": 2682,
      "lies": 2683,
      "Ġfavour": 2684,
      "Ġloath": 2685,
      "wice": 2686,
      "ular": 2687,
      "Ġmod": 2688,
      "ieu": 2689,
      "ume": 2690,
      "Ġquo": 2691,
      "Ġproclaim": 2692,
      "lock": 2693,
      "Ġgremio": 2694,
      "within": 2695,
      "thought": 2696,
      "Ġbroke": 2697,
      "Ġnorthumberland": 2698,
      "Ġdesperate": 2699,
      "never": 2700,
      "Ġprecious": 2701,
      "Ġbears": 2702,
      "Ġpride": 2703,
      "Ġconscience": 2704,
      "Ġglory": 2705,
      "Ġentertain": 2706,
      "Ġcompl": 2707,
      "sirrah": 2708,
      "orset": 2709,
      "ushy": 2710,
      "Ġlands": 2711,
      "Ġwoes": 2712,
      "Ġauthor": 2713,
      "Ġdrunk": 2714,
      "father": 2715,
      "Ġwatchman": 2716,
      "Ġobed": 2717,
      "Ġknees": 2718,
      "Ġblessed": 2719,
      "Ġhundred": 2720,
      "Ġtowards": 2721,
      "Ġbones": 2722,
      "Ġvenge": 2723,
      "Ġsomet": 2724,
      "Ġvictory": 2725,
      "Ġwisdom": 2726,
      "Ġkinsman": 2727,
      "Ġswift": 2728,
      "Ġeffect": 2729,
      "Ġxi": 2730,
      "Ġmethinks": 2731,
      ";'": 2732,
      "aking": 2733,
      "bb": 2734,
      "bet": 2735,
      "fear": 2736,
      "gri": 2737,
      "gment": 2738,
      "gree": 2739,
      "hors": 2740,
      "head": 2741,
      "pir": 2742,
      "post": 2743,
      "samps": 2744,
      "vail": 2745,
      "Ġalive": 2746,
      "Ġsal": 2747,
      "inking": 2748,
      "Ġmoney": 2749,
      "Ġmasters": 2750,
      "ances": 2751,
      "arry": 2752,
      "ones": 2753,
      "Ġfru": 2754,
      "Ġfee": 2755,
      "Ġfought": 2756,
      "Ġcam": 2757,
      "Ġdied": 2758,
      "Ġdeter": 2759,
      "Ġgrumio": 2760,
      "Ġhair": 2761,
      "irl": 2762,
      "Ġwhite": 2763,
      "Ġshore": 2764,
      "Ġship": 2765,
      "Ġfore": 2766,
      "ease": 2767,
      "ask": 2768,
      "Ġeld": 2769,
      "estion": 2770,
      "cked": 2771,
      "Ġdoing": 2772,
      "Ġlordship": 2773,
      "ility": 2774,
      "cted": 2775,
      "Ġmanner": 2776,
      "Ġknowledge": 2777,
      "Ġarmy": 2778,
      "iful": 2779,
      "Ġenjoy": 2780,
      "Ġprov": 2781,
      "Ġwarm": 2782,
      "love": 2783,
      "Ġabro": 2784,
      "Ġwherefore": 2785,
      "peter": 2786,
      "Ġhonours": 2787,
      "Ġsever": 2788,
      "Ġadd": 2789,
      "ations": 2790,
      "Ġkept": 2791,
      "Ġdeadly": 2792,
      "Ġcontr": 2793,
      "Ġcontin": 2794,
      "Ġguest": 2795,
      "Ġguess": 2796,
      "kenbury": 2797,
      "Ġdreams": 2798,
      "Ġpromised": 2799,
      "Ġdanger": 2800,
      "Ġfew": 2801,
      "Ġdespair": 2802,
      "Ġwretched": 2803,
      "Ġvols": 2804,
      "pedant": 2805,
      "Ġcheeks": 2806,
      "curtis": 2807,
      "true": 2808,
      "Ġlabour": 2809,
      "Ġstruck": 2810,
      "sampson": 2811,
      ":--": 2812,
      "either": 2813,
      "gory": 2814,
      "host": 2815,
      "ict": 2816,
      "ointed": 2817,
      "rrel": 2818,
      "ude": 2819,
      "ways": 2820,
      "ys": 2821,
      "Ġap": 2822,
      "Ġaid": 2823,
      "orious": 2824,
      "Ġbend": 2825,
      "Ġbast": 2826,
      "Ġtent": 2827,
      "Ġtry": 2828,
      "once": 2829,
      "esy": 2830,
      "Ġcorn": 2831,
      "Ġcred": 2832,
      "Ġcried": 2833,
      "Ġlaugh": 2834,
      "Ġpeter": 2835,
      "Ġgent": 2836,
      "Ġgain": 2837,
      "stant": 2838,
      "change": 2839,
      "Ġinj": 2840,
      "Ġintend": 2841,
      "Ġhealth": 2842,
      "Ġwhether": 2843,
      "Ġshake": 2844,
      "ited": 2845,
      "ourn": 2846,
      "ads": 2847,
      "Ġsteal": 2848,
      "allow": 2849,
      "Ġliest": 2850,
      "Ġherself": 2851,
      "Ġrise": 2852,
      "Ġspent": 2853,
      "Ġgovern": 2854,
      "antigonus": 2855,
      "Ġneighb": 2856,
      "Ġunf": 2857,
      "Ġmoved": 2858,
      "Ġamong": 2859,
      "Ġdemand": 2860,
      "Ġblush": 2861,
      "ift": 2862,
      "Ġencounter": 2863,
      "inks": 2864,
      "Ġprovost": 2865,
      "loved": 2866,
      "Ġgreet": 2867,
      "els": 2868,
      "Ġrot": 2869,
      "Ġearly": 2870,
      "Ġbrothers": 2871,
      "Ġhonourable": 2872,
      "Ġflowers": 2873,
      "Ġcounter": 2874,
      "Ġcalls": 2875,
      "Ġremed": 2876,
      "Ġcapit": 2877,
      "Ġkindred": 2878,
      "Ġcharity": 2879,
      "Ġdouble": 2880,
      "Ġunderstand": 2881,
      "Ġfoolish": 2882,
      "Ġhumble": 2883,
      "Ġvalour": 2884,
      "Ġjudge": 2885,
      "Ġsummer": 2886,
      "citizens": 2887,
      "Ġcruel": 2888,
      "Ġquoth": 2889,
      "death": 2890,
      "ek": 2891,
      "three": 2892,
      "Ġthro": 2893,
      "Ġthomas": 2894,
      "Ġhark": 2895,
      "ining": 2896,
      "Ġwail": 2897,
      "Ġba": 2898,
      "Ġidle": 2899,
      "Ġfaint": 2900,
      "ating": 2901,
      "Ġcup": 2902,
      "Ġdin": 2903,
      "Ġdance": 2904,
      "Ġdwell": 2905,
      "Ġyea": 2906,
      "Ġpun": 2907,
      "Ġpack": 2908,
      "Ġanon": 2909,
      "leep": 2910,
      "Ġinc": 2911,
      "keep": 2912,
      "Ġforce": 2913,
      "Ġstro": 2914,
      "Ġstone": 2915,
      "Ġstars": 2916,
      "Ġweary": 2917,
      "Ġvie": 2918,
      "Ġref": 2919,
      "Ġgoing": 2920,
      "Ġours": 2921,
      "Ġconvey": 2922,
      "Ġrid": 2923,
      "Ġamaz": 2924,
      "Ġblame": 2925,
      "Ġsirrah": 2926,
      "icious": 2927,
      "Ġthereof": 2928,
      "ify": 2929,
      "Ġenvy": 2930,
      "Ġroar": 2931,
      "Ġalas": 2932,
      "Ġthinks": 2933,
      "poss": 2934,
      "Ġseven": 2935,
      "Ġadieu": 2936,
      "Ġparty": 2937,
      "prison": 2938,
      "Ġothers": 2939,
      "Ġpriest": 2940,
      "Ġglass": 2941,
      "great": 2942,
      "Ġkindness": 2943,
      "bled": 2944,
      "Ġbids": 2945,
      "Ġbright": 2946,
      "Ġoverdone": 2947,
      "Ġmiser": 2948,
      "Ġwinter": 2949,
      "Ġcrave": 2950,
      "Ġcondition": 2951,
      "Ġmonth": 2952,
      "Ġmusician": 2953,
      "Ġminister": 2954,
      "Ġwalls": 2955,
      "Ġextrem": 2956,
      "Ġbenef": 2957,
      "Ġprivate": 2958,
      "Ġscarce": 2959,
      "Ġsatisfied": 2960,
      "Ġvengeance": 2961,
      "Ġabroad": 2962,
      "Ġvolsces": 2963,
      "Ġview": 2964,
      "acc": 2965,
      "born": 2966,
      "cuse": 2967,
      "fie": 2968,
      "hence": 2969,
      "mble": 2970,
      "ny": 2971,
      "ners": 2972,
      "oxford": 2973,
      "turn": 2974,
      "vish": 2975,
      "woman": 2976,
      "ying": 2977,
      "Ġed": 2978,
      "eria": 2979,
      "Ġhol": 2980,
      "into": 2981,
      "Ġmil": 2982,
      "Ġwat": 2983,
      "Ġwre": 2984,
      "Ġweal": 2985,
      "orous": 2986,
      "Ġbird": 2987,
      "Ġtwice": 2988,
      "arp": 2989,
      "Ġfare": 2990,
      "Ġfirm": 2991,
      "Ġcre": 2992,
      "Ġcir": 2993,
      "Ġcorse": 2994,
      "Ġlest": 2995,
      "Ġpom": 2996,
      "Ġpil": 2997,
      "vell": 2998,
      "stanley": 2999,
      "cei": 3000,
      "cell": 3001,
      "Ġincl": 3002,
      "ety": 3003,
      "Ġshrew": 3004,
      "Ġformer": 3005,
      "ased": 3006,
      "whilst": 3007,
      "ioli": 3008,
      "unning": 3009,
      "Ġwel": 3010,
      "arden": 3011,
      "ident": 3012,
      "Ġvile": 3013,
      "Ġreceived": 3014,
      "Ġren": 3015,
      "Ġrutland": 3016,
      "Ġspake": 3017,
      "Ġsport": 3018,
      "Ġconcl": 3019,
      "Ġrivers": 3020,
      "show": 3021,
      "shal": 3022,
      "indeed": 3023,
      "Ġarri": 3024,
      "Ġmayst": 3025,
      "Ġquite": 3026,
      "Ġtruly": 3027,
      "Ġsaf": 3028,
      "without": 3029,
      "Ġhonesty": 3030,
      "Ġexcuse": 3031,
      "poor": 3032,
      "Ġflower": 3033,
      "Ġcounty": 3034,
      "Ġfoes": 3035,
      "Ġslander": 3036,
      "Ġprepar": 3037,
      "Ġimag": 3038,
      "Ġtrial": 3039,
      "Ġguard": 3040,
      "Ġcover": 3041,
      "Ġaccount": 3042,
      "ailor": 3043,
      "ierce": 3044,
      "Ġtyrant": 3045,
      "richmond": 3046,
      "Ġmercutio": 3047,
      "Ġhumour": 3048,
      "Ġswords": 3049,
      "Ġsentence": 3050,
      "Ġdeputy": 3051,
      "Ġjudgment": 3052,
      "Ġcastle": 3053,
      "Ġacqu": 3054,
      "grace": 3055,
      "Ġevil": 3056,
      "Ġtrouble": 3057,
      "Ġchanged": 3058,
      "Ġeasy": 3059,
      "Ġutter": 3060,
      "worthy": 3061,
      "Ġmantua": 3062,
      "Ġfruit": 3063,
      "'?": 3064,
      "cour": 3065,
      "fellow": 3066,
      "mn": 3067,
      "min": 3068,
      "meth": 3069,
      "miss": 3070,
      "nat": 3071,
      "ping": 3072,
      "pers": 3073,
      "tt": 3074,
      "twixt": 3075,
      "two": 3076,
      "ued": 3077,
      "uri": 3078,
      "wid": 3079,
      "wise": 3080,
      "Ġthunder": 3081,
      "Ġsix": 3082,
      "Ġmain": 3083,
      "Ġbrow": 3084,
      "Ġbite": 3085,
      "Ġboot": 3086,
      "Ġbrows": 3087,
      "Ġir": 3088,
      "ane": 3089,
      "Ġtaken": 3090,
      "Ġfain": 3091,
      "Ġfell": 3092,
      "Ġfeed": 3093,
      "llo": 3094,
      "Ġcatesby": 3095,
      "Ġcustom": 3096,
      "Ġdust": 3097,
      "Ġdull": 3098,
      "Ġpaulina": 3099,
      "Ġgown": 3100,
      "Ġgrown": 3101,
      "Ġgirl": 3102,
      "Ġghost": 3103,
      "Ġwhilst": 3104,
      "Ġshri": 3105,
      "Ġmeat": 3106,
      "itted": 3107,
      "Ġwither": 3108,
      "alack": 3109,
      "und": 3110,
      "Ġstab": 3111,
      "Ġstoop": 3112,
      "Ġstanley": 3113,
      "ursed": 3114,
      "idings": 3115,
      "Ġvice": 3116,
      "Ġproof": 3117,
      "Ġspring": 3118,
      "Ġnecess": 3119,
      "noble": 3120,
      "nothing": 3121,
      "ult": 3122,
      "Ġcominius": 3123,
      "Ġblest": 3124,
      "Ġblind": 3125,
      "myself": 3126,
      "iff": 3127,
      "Ġquestion": 3128,
      "ope": 3129,
      "held": 3130,
      "Ġenv": 3131,
      "cles": 3132,
      "Ġleaves": 3133,
      "Ġpercy": 3134,
      "Ġcommend": 3135,
      "Ġprevent": 3136,
      "brother": 3137,
      "gregory": 3138,
      "Ġrepent": 3139,
      "ealous": 3140,
      "Ġknave": 3141,
      "Ġsmile": 3142,
      "Ġsenate": 3143,
      "airs": 3144,
      "Ġtyran": 3145,
      "Ġwrongs": 3146,
      "Ġburied": 3147,
      "Ġtraitors": 3148,
      "Ġreasons": 3149,
      "Ġassist": 3150,
      "Ġimport": 3151,
      "brakenbury": 3152,
      "Ġcorioli": 3153,
      "Ġpains": 3154,
      "having": 3155,
      "Ġdivine": 3156,
      "besides": 3157,
      "Ġplantagenet": 3158,
      "Ġmalice": 3159,
      "Ġsacred": 3160,
      "Ġfiery": 3161,
      "Ġinnocent": 3162,
      "happy": 3163,
      "Ġchoice": 3164,
      "Ġconquer": 3165,
      "Ġembrace": 3166,
      "signior": 3167,
      "Ġschool": 3168,
      "horson": 3169,
      "Ġpunish": 3170,
      "Ġsafety": 3171,
      "methinks": 3172,
      "?'": 3173,
      "bell": 3174,
      "bushy": 3175,
      "cas": 3176,
      "came": 3177,
      "dost": 3178,
      "gro": 3179,
      "ipp": 3180,
      "ler": 3181,
      "low": 3182,
      "law": 3183,
      "none": 3184,
      "od": 3185,
      "page": 3186,
      "pass": 3187,
      "rate": 3188,
      "tut": 3189,
      "tion": 3190,
      "ught": 3191,
      "ysic": 3192,
      "Ġes": 3193,
      "thomas": 3194,
      "Ġavo": 3195,
      "Ġsits": 3196,
      "Ġwra": 3197,
      "Ġwings": 3198,
      "Ġwag": 3199,
      "orry": 3200,
      "anch": 3201,
      "Ġtroth": 3202,
      "ony": 3203,
      "onoun": 3204,
      "Ġfury": 3205,
      "Ġfinger": 3206,
      "Ġlend": 3207,
      "Ġlang": 3208,
      "Ġda": 3209,
      "Ġdri": 3210,
      "Ġanger": 3211,
      "Ġgross": 3212,
      "Ġgarden": 3213,
      "Ġnose": 3214,
      "chance": 3215,
      "Ġinform": 3216,
      "ooking": 3217,
      "ourish": 3218,
      "eas": 3219,
      "Ġele": 3220,
      "als": 3221,
      "Ġstar": 3222,
      "Ġstones": 3223,
      "Ġweeds": 3224,
      "ract": 3225,
      "Ġdoor": 3226,
      "Ġbutcher": 3227,
      "Ġallow": 3228,
      "Ġran": 3229,
      "Ġround": 3230,
      "Ġloyal": 3231,
      "Ġundone": 3232,
      "ctise": 3233,
      "Ġbod": 3234,
      "shire": 3235,
      "Ġblunt": 3236,
      "aper": 3237,
      "Ġmarshal": 3238,
      "Ġused": 3239,
      "Ġoracle": 3240,
      "Ġproper": 3241,
      "Ġproph": 3242,
      "Ġplot": 3243,
      "Ġplague": 3244,
      "ement": 3245,
      "Ġsail": 3246,
      "Ġfright": 3247,
      "derby": 3248,
      "Ġrock": 3249,
      "Ġalways": 3250,
      "Ġclaim": 3251,
      "Ġwherein": 3252,
      "Ġdesc": 3253,
      "Ġdesign": 3254,
      "aughters": 3255,
      "wherein": 3256,
      "Ġperceive": 3257,
      "Ġprayer": 3258,
      "norfolk": 3259,
      "Ġawake": 3260,
      "Ġplead": 3261,
      "Ġprepare": 3262,
      "Ġprevail": 3263,
      "Ġhollow": 3264,
      "Ġimm": 3265,
      "Ġimprison": 3266,
      "Ġcaptain": 3267,
      "Ġgrand": 3268,
      "amillius": 3269,
      "Ġtongues": 3270,
      "Ġfares": 3271,
      "Ġease": 3272,
      "Ġsubst": 3273,
      "Ġrude": 3274,
      "Ġcounten": 3275,
      "Ġfellows": 3276,
      "boy": 3277,
      "Ġcares": 3278,
      "place": 3279,
      "cons": 3280,
      "somerset": 3281,
      "Ġdelight": 3282,
      "Ġwanton": 3283,
      "Ġdeserve": 3284,
      "Ġtemp": 3285,
      "Ġtempt": 3286,
      "Ġbarnardine": 3287,
      "Ġprofess": 3288,
      "Ġguilt": 3289,
      "exeter": 3290,
      "Ġpractise": 3291,
      "Ġcheek": 3292,
      "Ġabsence": 3293,
      "Ġdrop": 3294,
      "Ġdrawn": 3295,
      "Ġapproach": 3296,
      "Ġcreature": 3297,
      "Ġtrumpets": 3298,
      "welve": 3299,
      "Ġignorant": 3300,
      "Ġauthority": 3301,
      "Ġrotten": 3302,
      "Ġremedy": 3303,
      "Ġcapitol": 3304,
      "widow": 3305,
      "Ġlangu": 3306,
      "act": 3307,
      "bre": 3308,
      "cum": 3309,
      "dain": 3310,
      "mop": 3311,
      "phe": 3312,
      "sal": 3313,
      "time": 3314,
      "yard": 3315,
      "Ġer": 3316,
      "Ġthrust": 3317,
      "Ġaim": 3318,
      "Ġapo": 3319,
      "Ġsy": 3320,
      "Ġsic": 3321,
      "Ġsens": 3322,
      "Ġhit": 3323,
      "Ġhid": 3324,
      "inion": 3325,
      "Ġwent": 3326,
      "Ġwal": 3327,
      "Ġwood": 3328,
      "Ġwof": 3329,
      "Ġwont": 3330,
      "Ġbark": 3331,
      "Ġire": 3332,
      "Ġted": 3333,
      "Ġtune": 3334,
      "Ġtidings": 3335,
      "only": 3336,
      "Ġcell": 3337,
      "Ġcure": 3338,
      "Ġcries": 3339,
      "isa": 3340,
      "ises": 3341,
      "Ġdur": 3342,
      "Ġnumber": 3343,
      "Ġowe": 3344,
      "Ġpair": 3345,
      "Ġange": 3346,
      "eding": 3347,
      "Ġwives": 3348,
      "Ġwicked": 3349,
      "Ġbecomes": 3350,
      "Ġbelly": 3351,
      "Ġnobles": 3352,
      "eto": 3353,
      "utes": 3354,
      "ldom": 3355,
      "Ġwhither": 3356,
      "Ġshr": 3357,
      "Ġfors": 3358,
      "iment": 3359,
      "ascal": 3360,
      "unts": 3361,
      "Ġstat": 3362,
      "Ġsteed": 3363,
      "Ġvantage": 3364,
      "Ġasleep": 3365,
      "forth": 3366,
      "ainted": 3367,
      "Ġreceive": 3368,
      "eeth": 3369,
      "Ġrash": 3370,
      "Ġroot": 3371,
      "Ġrascal": 3372,
      "Ġpress": 3373,
      "Ġchief": 3374,
      "wife": 3375,
      "ilt": 3376,
      "Ġamb": 3377,
      "Ġdew": 3378,
      "Ġdeposed": 3379,
      "Ġdeceived": 3380,
      "Ġjealous": 3381,
      "Ġtherein": 3382,
      "Ġdeal": 3383,
      "hel": 3384,
      "Ġshouldst": 3385,
      "Ġbroken": 3386,
      "Ġoutward": 3387,
      "Ġoffend": 3388,
      "Ġross": 3389,
      "Ġearn": 3390,
      "Ġheav": 3391,
      "Ġexpress": 3392,
      "Ġperish": 3393,
      "Ġwhole": 3394,
      "Ġjove": 3395,
      "Ġscr": 3396,
      "Ġmeaning": 3397,
      "Ġpreser": 3398,
      "Ġbegins": 3399,
      "Ġconsider": 3400,
      "Ġconspir": 3401,
      "Ġresign": 3402,
      "Ġfarther": 3403,
      "ault": 3404,
      "Ġfollows": 3405,
      "Ġfollowers": 3406,
      "Ġruin": 3407,
      "Ġtread": 3408,
      "Ġtreach": 3409,
      "Ġpassing": 3410,
      "Ġdevise": 3411,
      "Ġseas": 3412,
      "Ġpatric": 3413,
      "Ġbanished": 3414,
      "Ġcarry": 3415,
      "Ġmaids": 3416,
      "Ġsupp": 3417,
      "Ġsupper": 3418,
      "Ġfools": 3419,
      "Ġaught": 3420,
      "Ġadvise": 3421,
      "Ġspirits": 3422,
      "Ġgives": 3423,
      "Ġlamb": 3424,
      "cannot": 3425,
      "Ġborne": 3426,
      "Ġcondu": 3427,
      "Ġaffairs": 3428,
      "Ġsilver": 3429,
      "Ġsilence": 3430,
      "Ġpossible": 3431,
      "haps": 3432,
      "Ġdespite": 3433,
      "Ġsomerset": 3434,
      "Ġgarments": 3435,
      "Ġthrive": 3436,
      "Ġphysic": 3437,
      "Ġverona": 3438,
      "Ġclear": 3439,
      "Ġdreadful": 3440,
      "Ġbabe": 3441,
      "Ġpub": 3442,
      "Ġprotect": 3443,
      "Ġviolent": 3444,
      "valeria": 3445,
      "Ġoccasion": 3446,
      "Ġchristian": 3447,
      "Ġsimple": 3448,
      "Ġfatal": 3449,
      "ursday": 3450,
      "Ġcredit": 3451,
      "Ġneighbour": 3452,
      "Ġthroat": 3453,
      "Ġbenefit": 3454,
      "mopsa": 3455,
      "Ġwoful": 3456,
      "Ġtedious": 3457,
      "bar": 3458,
      "banish": 3459,
      "cate": 3460,
      "cousin": 3461,
      "din": 3462,
      "down": 3463,
      "ew": 3464,
      "ext": 3465,
      "hea": 3466,
      "has": 3467,
      "mamillius": 3468,
      "sup": 3469,
      "tailor": 3470,
      "vill": 3471,
      "water": 3472,
      "ye": 3473,
      "Ġthursday": 3474,
      "Ġsan": 3475,
      "Ġsorry": 3476,
      "ereto": 3477,
      "Ġmoun": 3478,
      "Ġwest": 3479,
      "Ġwine": 3480,
      "Ġwol": 3481,
      "Ġwond": 3482,
      "Ġwot": 3483,
      "Ġwander": 3484,
      "ences": 3485,
      "Ġber": 3486,
      "Ġbond": 3487,
      "Ġbran": 3488,
      "ancy": 3489,
      "Ġtran": 3490,
      "Ġtaste": 3491,
      "Ġtwelve": 3492,
      "arm": 3493,
      "Ġfre": 3494,
      "Ġflight": 3495,
      "atsw": 3496,
      "Ġcunning": 3497,
      "Ġder": 3498,
      "Ġdet": 3499,
      "Ġdue": 3500,
      "Ġnine": 3501,
      "Ġnames": 3502,
      "Ġow": 3503,
      "Ġpin": 3504,
      "Ġport": 3505,
      "Ġpawn": 3506,
      "Ġpaper": 3507,
      "Ġtop": 3508,
      "reh": 3509,
      "rey": 3510,
      "Ġgage": 3511,
      "still": 3512,
      "Ġbelike": 3513,
      "Ġbeheld": 3514,
      "Ġinfect": 3515,
      "usion": 3516,
      "Ġwhiles": 3517,
      "Ġshut": 3518,
      "Ġsheep": 3519,
      "itch": 3520,
      "itude": 3521,
      "enture": 3522,
      "oots": 3523,
      "asar": 3524,
      "Ġequ": 3525,
      "adv": 3526,
      "alf": 3527,
      "Ġweight": 3528,
      "Ġlip": 3529,
      "Ġpronoun": 3530,
      "Ġspend": 3531,
      "Ġspare": 3532,
      "Ġspec": 3533,
      "ants": 3534,
      "Ġunnat": 3535,
      "ouses": 3536,
      "Ġconj": 3537,
      "abhorson": 3538,
      "Ġamen": 3539,
      "Ġkingly": 3540,
      "app": 3541,
      "iffer": 3542,
      "Ġquit": 3543,
      "Ġquench": 3544,
      "believe": 3545,
      "loy": 3546,
      "imely": 3547,
      "Ġroom": 3548,
      "Ġgentlewoman": 3549,
      "Ġdisposition": 3550,
      "Ġdisdain": 3551,
      "Ġexile": 3552,
      "Ġexcell": 3553,
      "Ġseest": 3554,
      "Ġmenenius": 3555,
      "Ġbrook": 3556,
      "Ġbetwixt": 3557,
      "Ġperil": 3558,
      "Ġparts": 3559,
      "Ġprize": 3560,
      "mark": 3561,
      "Ġaffect": 3562,
      "Ġlean": 3563,
      "Ġlegs": 3564,
      "Ġkeeps": 3565,
      "iteous": 3566,
      "Ġeast": 3567,
      "Ġcock": 3568,
      "Ġpursu": 3569,
      "Ġaccus": 3570,
      "Ġconfer": 3571,
      "otion": 3572,
      "Ġcurst": 3573,
      "Ġharry": 3574,
      "ples": 3575,
      "Ġhumbly": 3576,
      "Ġcourtesy": 3577,
      "Ġadvantage": 3578,
      "Ġdenied": 3579,
      "iety": 3580,
      "Ġcaius": 3581,
      "Ġbona": 3582,
      "Ġresolve": 3583,
      "Ġwedding": 3584,
      "Ġpleased": 3585,
      "Ġpleasant": 3586,
      "Ġuntil": 3587,
      "known": 3588,
      "mbling": 3589,
      "althasar": 3590,
      "Ġsighs": 3591,
      "Ġhurt": 3592,
      "Ġstuff": 3593,
      "Ġprinces": 3594,
      "Ġcolour": 3595,
      "Ġanti": 3596,
      "Ġempty": 3597,
      "Ġdamned": 3598,
      "Ġweap": 3599,
      "Ġstorm": 3600,
      "Ġpalace": 3601,
      "Ġshadow": 3602,
      "Ġforsworn": 3603,
      "Ġthreaten": 3604,
      "Ġmutin": 3605,
      "Ġcomplain": 3606,
      "Ġcontrary": 3607,
      "Ġbastard": 3608,
      "Ġdinner": 3609,
      "Ġmiserable": 3610,
      "Ġrenown": 3611,
      "Ġprepared": 3612,
      "Ġenvious": 3613,
      "groom": 3614,
      "Ġpublic": 3615,
      "Ġsanct": 3616,
      "atswain": 3617,
      "ald": 3618,
      "balthasar": 3619,
      "clock": 3620,
      "dorset": 3621,
      "fal": 3622,
      "fair": 3623,
      "gr": 3624,
      "iance": 3625,
      "ker": 3626,
      "mal": 3627,
      "might": 3628,
      "mity": 3629,
      "oes": 3630,
      "pen": 3631,
      "pic": 3632,
      "rt": 3633,
      "sing": 3634,
      "yond": 3635,
      "those": 3636,
      "Ġsep": 3637,
      "Ġsouth": 3638,
      "Ġscept": 3639,
      "Ġhost": 3640,
      "Ġhors": 3641,
      "Ġmiss": 3642,
      "Ġmourn": 3643,
      "ories": 3644,
      "ene": 3645,
      "enn": 3646,
      "enced": 3647,
      "Ġbas": 3648,
      "Ġball": 3649,
      "Ġbud": 3650,
      "Ġbiondello": 3651,
      "Ġtut": 3652,
      "Ġtal": 3653,
      "Ġtable": 3654,
      "Ġfle": 3655,
      "Ġfro": 3656,
      "Ġfra": 3657,
      "Ġfish": 3658,
      "Ġfash": 3659,
      "Ġcri": 3660,
      "Ġcens": 3661,
      "Ġcatch": 3662,
      "Ġcalm": 3663,
      "ising": 3664,
      "isbury": 3665,
      "Ġlin": 3666,
      "Ġled": 3667,
      "Ġlooking": 3668,
      "Ġdign": 3669,
      "Ġdies": 3670,
      "Ġdag": 3671,
      "Ġdaughters": 3672,
      "Ġyonder": 3673,
      "Ġnaked": 3674,
      "Ġpi": 3675,
      "Ġped": 3676,
      "Ġpisa": 3677,
      "Ġpiteous": 3678,
      "Ġgru": 3679,
      "Ġgate": 3680,
      "omenes": 3681,
      "stri": 3682,
      "Ġwits": 3683,
      "Ġbeloved": 3684,
      "sequ": 3685,
      "Ġheed": 3686,
      "utation": 3687,
      "Ġmel": 3688,
      "Ġely": 3689,
      "ades": 3690,
      "Ġstory": 3691,
      "amp": 3692,
      "Ġweigh": 3693,
      "urance": 3694,
      "Ġvouch": 3695,
      "Ġones": 3696,
      "Ġreward": 3697,
      "Ġrebe": 3698,
      "Ġfail": 3699,
      "ills": 3700,
      "Ġchide": 3701,
      "wilt": 3702,
      "Ġgoodness": 3703,
      "about": 3704,
      "Ġmotion": 3705,
      "Ġdelay": 3706,
      "oles": 3707,
      "ump": 3708,
      "Ġtheirs": 3709,
      "Ġseeing": 3710,
      "Ġpolixenes": 3711,
      "Ġpla": 3712,
      "oft": 3713,
      "akest": 3714,
      "ontent": 3715,
      "Ġdiss": 3716,
      "Ġabo": 3717,
      "Ġalter": 3718,
      "Ġexpect": 3719,
      "Ġraven": 3720,
      "Ġperpet": 3721,
      "Ġperfect": 3722,
      "Ġfolly": 3723,
      "Ġslow": 3724,
      "Ġprey": 3725,
      "Ġmaking": 3726,
      "brance": 3727,
      "Ġcrowns": 3728,
      "Ġcourage": 3729,
      "Ġhopes": 3730,
      "Ġcompass": 3731,
      "Ġends": 3732,
      "Ġendure": 3733,
      "lords": 3734,
      "Ġaccess": 3735,
      "Ġaccuse": 3736,
      "Ġsenators": 3737,
      "Ġneedful": 3738,
      "Ġfortunes": 3739,
      "Ġnatural": 3740,
      "Ġjoys": 3741,
      "Ġjoyful": 3742,
      "Ġhappiness": 3743,
      "Ġcurr": 3744,
      "Ġcursed": 3745,
      "Ġcurses": 3746,
      "Ġmisery": 3747,
      "Ġundertake": 3748,
      "please": 3749,
      "cape": 3750,
      "conf": 3751,
      "Ġseeming": 3752,
      "Ġpersu": 3753,
      "Ġassurance": 3754,
      "Ġremembrance": 3755,
      "Ġmarket": 3756,
      "Ġspoken": 3757,
      "Ġdiscover": 3758,
      "Ġdiscontent": 3759,
      "Ġwounded": 3760,
      "Ġcrack": 3761,
      "Ġopinion": 3762,
      "Ġcorrupt": 3763,
      "Ġpainted": 3764,
      "Ġpetition": 3765,
      "Ġinstruct": 3766,
      "Ġinstrument": 3767,
      "hearted": 3768,
      "Ġterror": 3769,
      "Ġresolved": 3770,
      "Ġaccept": 3771,
      "Ġwrite": 3772,
      "Ġburthen": 3773,
      "Ġgriev": 3774,
      "Ġremains": 3775,
      "gentlemen": 3776,
      "Ġduked": 3777,
      "Ġgroan": 3778,
      "Ġpenit": 3779,
      "Ġstudy": 3780,
      "Ġprincess": 3781,
      "Ġprotest": 3782,
      "Ġmistake": 3783,
      "Ġcolours": 3784,
      "Ġdestroy": 3785,
      "Ġdrum": 3786,
      "Ġintent": 3787,
      "Ġattempt": 3788,
      "Ġemploy": 3789,
      "prithee": 3790,
      "iban": 3791,
      "Ġhatred": 3792,
      "Ġlength": 3793,
      "Ġsolemn": 3794,
      "Ġobedience": 3795,
      "Ġsometime": 3796,
      "Ġseveral": 3797,
      "Ġcontinue": 3798,
      "Ġgovernment": 3799,
      "Ġwaters": 3800,
      "Ġcircum": 3801,
      "urious": 3802,
      "Ġwrath": 3803,
      "Ġbodies": 3804,
      "Ġcountenance": 3805,
      "Ġlanguage": 3806,
      "Ġdurst": 3807,
      "dinand": 3808,
      "Ġunnatural": 3809,
      "picion": 3810,
      "Ġdukedom": 3811,
      "?--": 3812,
      "aed": 3813,
      "certain": 3814,
      "dor": 3815,
      "dge": 3816,
      "dear": 3817,
      "dig": 3818,
      "hor": 3819,
      "ife": 3820,
      "iate": 3821,
      "kin": 3822,
      "maid": 3823,
      "oke": 3824,
      "part": 3825,
      "run": 3826,
      "same": 3827,
      "save": 3828,
      "uary": 3829,
      "vours": 3830,
      "wom": 3831,
      "youn": 3832,
      "things": 3833,
      "Ġach": 3834,
      "Ġsins": 3835,
      "Ġsooth": 3836,
      "Ġhouses": 3837,
      "Ġmere": 3838,
      "Ġmend": 3839,
      "Ġmag": 3840,
      "Ġmile": 3841,
      "ores": 3842,
      "ency": 3843,
      "Ġbare": 3844,
      "anced": 3845,
      "Ġtest": 3846,
      "Ġtort": 3847,
      "Ġteeth": 3848,
      "aries": 3849,
      "Ġfame": 3850,
      "Ġflies": 3851,
      "atic": 3852,
      "atience": 3853,
      "Ġcease": 3854,
      "isper": 3855,
      "Ġlarge": 3856,
      "Ġdi": 3857,
      "Ġyes": 3858,
      "Ġnought": 3859,
      "Ġpowers": 3860,
      "Ġtomb": 3861,
      "strous": 3862,
      "Ġbew": 3863,
      "Ġbeyond": 3864,
      "lex": 3865,
      "Ġincre": 3866,
      "Ġhaz": 3867,
      "uted": 3868,
      "rian": 3869,
      "Ġshape": 3870,
      "Ġsharp": 3871,
      "Ġisle": 3872,
      "Ġisland": 3873,
      "whither": 3874,
      "Ġits": 3875,
      "Ġkin": 3876,
      "Ġstore": 3877,
      "Ġstrew": 3878,
      "idence": 3879,
      "Ġvirg": 3880,
      "forced": 3881,
      "Ġrel": 3882,
      "Ġrealm": 3883,
      "Ġwillough": 3884,
      "Ġfaces": 3885,
      "Ġhermione": 3886,
      "Ġring": 3887,
      "Ġrush": 3888,
      "Ġspite": 3889,
      "Ġchair": 3890,
      "Ġcholer": 3891,
      "Ġframe": 3892,
      "Ġfrench": 3893,
      "Ġunknown": 3894,
      "Ġboar": 3895,
      "Ġconc": 3896,
      "Ġcomest": 3897,
      "Ġmanners": 3898,
      "Ġdebt": 3899,
      "Ġdegree": 3900,
      "apes": 3901,
      "Ġjour": 3902,
      "Ġjack": 3903,
      "icular": 3904,
      "Ġhereafter": 3905,
      "olute": 3906,
      "ument": 3907,
      "ified": 3908,
      "arel": 3909,
      "Ġqual": 3910,
      "Ġenmity": 3911,
      "ember": 3912,
      "Ġfathers": 3913,
      "clam": 3914,
      "Ġrose": 3915,
      "tyrrel": 3916,
      "Ġalack": 3917,
      "Ġsway": 3918,
      "Ġswallow": 3919,
      "ages": 3920,
      "Ġfriendly": 3921,
      "Ġnorth": 3922,
      "urnish": 3923,
      "Ġfairly": 3924,
      "Ġseize": 3925,
      "Ġbrings": 3926,
      "ney": 3927,
      "Ġadvers": 3928,
      "Ġscope": 3929,
      "Ġscene": 3930,
      "comm": 3931,
      "comfort": 3932,
      "Ġways": 3933,
      "thanks": 3934,
      "bring": 3935,
      "Ġappar": 3936,
      "Ġappreh": 3937,
      "Ġapparel": 3938,
      "Ġcontract": 3939,
      "ctions": 3940,
      "Ġimposs": 3941,
      "Ġglorious": 3942,
      "green": 3943,
      "Ġrepair": 3944,
      "Ġservices": 3945,
      "Ġslept": 3946,
      "Ġknight": 3947,
      "Ġpurch": 3948,
      "Ġaccom": 3949,
      "Ġaccord": 3950,
      "Ġsmooth": 3951,
      "Ġbrain": 3952,
      "Ġrule": 3953,
      "Ġpassage": 3954,
      "Ġtrade": 3955,
      "boatswain": 3956,
      "Ġmaiden": 3957,
      "Ġhateful": 3958,
      "Ġturns": 3959,
      "Ġinstant": 3960,
      "faced": 3961,
      "Ġwants": 3962,
      "Ġarmour": 3963,
      "Ġdeserves": 3964,
      "Ġcommanded": 3965,
      "Ġhanging": 3966,
      "Ġfreely": 3967,
      "Ġcontented": 3968,
      "Ġtemper": 3969,
      "Ġgrows": 3970,
      "Ġlucio": 3971,
      "Ġgranted": 3972,
      "Ġvenom": 3973,
      "beseech": 3974,
      "Ġterms": 3975,
      "Ġresolution": 3976,
      "Ġvex": 3977,
      "Ġshortly": 3978,
      "Ġpraise": 3979,
      "Ġuntimely": 3980,
      "Ġleads": 3981,
      "Ġabsent": 3982,
      "safe": 3983,
      "Ġdrops": 3984,
      "Ġprivile": 3985,
      "Ġdares": 3986,
      "Ġdarest": 3987,
      "Ġrespected": 3988,
      "Ġdrums": 3989,
      "justice": 3990,
      "Ġtorment": 3991,
      "Ġreverend": 3992,
      "Ġprosperous": 3993,
      "Ġsuspicion": 3994,
      "Ġodds": 3995,
      "Ġnaples": 3996,
      "Ġsalisbury": 3997,
      "Ġcamest": 3998,
      "Ġwreck": 3999,
      "courage": 4000,
      "Ġearnest": 4001,
      "heaven": 4002,
      "Ġexcellent": 4003,
      "Ġsceptre": 4004,
      "Ġhorses": 4005,
      "Ġdagger": 4006,
      "olesome": 4007,
      "dorcas": 4008,
      "women": 4009,
      "Ġincrease": 4010,
      "Ġwilloughby": 4011,
      "cor": 4012,
      "car": 4013,
      "dar": 4014,
      "fret": 4015,
      "hang": 4016,
      "lar": 4017,
      "much": 4018,
      "makes": 4019,
      "name": 4020,
      "roman": 4021,
      "sm": 4022,
      "soft": 4023,
      "tri": 4024,
      "uff": 4025,
      "vouch": 4026,
      "wear": 4027,
      "zed": 4028,
      "Ġing": 4029,
      "Ġthorn": 4030,
      "Ġthief": 4031,
      "Ġah": 4032,
      "Ġable": 4033,
      "Ġsqu": 4034,
      "Ġswe": 4035,
      "Ġsink": 4036,
      "Ġswell": 4037,
      "Ġhie": 4038,
      "Ġhunt": 4039,
      "ination": 4040,
      "ints": 4041,
      "Ġmor": 4042,
      "Ġmir": 4043,
      "Ġmill": 4044,
      "Ġbury": 4045,
      "Ġboots": 4046,
      "another": 4047,
      "Ġtar": 4048,
      "Ġtro": 4049,
      "Ġtap": 4050,
      "Ġtame": 4051,
      "Ġtaught": 4052,
      "Ġtide": 4053,
      "onso": 4054,
      "Ġfig": 4055,
      "Ġfroth": 4056,
      "isto": 4057,
      "Ġlun": 4058,
      "Ġloud": 4059,
      "Ġlark": 4060,
      "Ġdow": 4061,
      "Ġdig": 4062,
      "Ġdress": 4063,
      "Ġpure": 4064,
      "reme": 4065,
      "inged": 4066,
      "Ġgift": 4067,
      "andal": 4068,
      "Ġbeard": 4069,
      "Ġbethink": 4070,
      "Ġnobl": 4071,
      "Ġnobly": 4072,
      "char": 4073,
      "leave": 4074,
      "Ġintell": 4075,
      "rif": 4076,
      "Ġwhip": 4077,
      "Ġshun": 4078,
      "Ġmeant": 4079,
      "itable": 4080,
      "ghost": 4081,
      "Ġforbear": 4082,
      "eap": 4083,
      "Ġknot": 4084,
      "alonso": 4085,
      "uncle": 4086,
      "Ġsto": 4087,
      "Ġstol": 4088,
      "amen": 4089,
      "Ġwept": 4090,
      "Ġlion": 4091,
      "Ġvan": 4092,
      "Ġvar": 4093,
      "Ġvows": 4094,
      "Ġvault": 4095
    },
    "merges": [
      [
        "t",
        "h"
      ],
      [
        "Ġ",
        "th"
      ],
      [
        "Ġ",
        "a"
      ],
      [
        "o",
        "u"
      ],
      [
        "Ġ",
        "s"
      ],
      [
        "e",
        "r"
      ],
      [
        "Ġ",
        "h"
      ],
      [
        "i",
        "n"
      ],
      [
        "Ġ",
        "m"
      ],
      [
        "Ġ",
        "w"
      ],
      [
        "o",
        "r"
      ],
      [
        "e",
        "n"
      ],
      [
        "Ġ",
        "b"
      ],
      [
        "Ġ",
        "i"
      ],
      [
        "a",
        "n"
      ],
      [
        "Ġ",
        "t"
      ],
      [
        "Ġth",
        "e"
      ],
      [
        "a",
        "r"
      ],
      [
        "o",
        "n"
      ],
      [
        "e",
        "s"
      ],
      [
        "Ġ",
        "f"
      ],
      [
        "l",
        "l"
      ],
      [
        "a",
        "t"
      ],
      [
        "Ġ",
        "c"
      ],
      [
        "i",
        "s"
      ],
      [
        "Ġ",
        "l"
      ],
      [
        "Ġ",
        "d"
      ],
      [
        "Ġ",
        "y"
      ],
      [
        "Ġ",
        "n"
      ],
      [
        "Ġ",
        "o"
      ],
      [
        "Ġ",
        "p"
      ],
      [
        "Ġt",
        "o"
      ],
      [
        "Ġa",
        "n"
      ],
      [
        "Ġy",
        "ou"
      ],
      [
        "r",
        "e"
      ],
      [
        "in",
        "g"
      ],
      [
        "Ġ",
        "g"
      ],
      [
        "o",
        "m"
      ],
      [
        "Ġo",
        "f"
      ],
      [
        "v",
        "e"
      ],
      [
        "Ġan",
        "d"
      ],
      [
        "o",
        "w"
      ],
      [
        "s",
        "t"
      ],
      [
        "e",
        "d"
      ],
      [
        "an",
        "d"
      ],
      [
        "Ġw",
        "i"
      ],
      [
        "Ġb",
        "e"
      ],
      [
        "s",
        "e"
      ],
      [
        "Ġn",
        "o"
      ],
      [
        "c",
        "h"
      ],
      [
        "l",
        "e"
      ],
      [
        "Ġm",
        "y"
      ],
      [
        "c",
        "e"
      ],
      [
        "a",
        "y"
      ],
      [
        "Ġ",
        "in"
      ],
      [
        "Ġh",
        "e"
      ],
      [
        "Ġh",
        "a"
      ],
      [
        "i",
        "r"
      ],
      [
        "e",
        "t"
      ],
      [
        "u",
        "t"
      ],
      [
        "er",
        "e"
      ],
      [
        "l",
        "d"
      ],
      [
        "r",
        "i"
      ],
      [
        "u",
        "s"
      ],
      [
        "Ġw",
        "h"
      ],
      [
        "k",
        "e"
      ],
      [
        "Ġs",
        "h"
      ],
      [
        "Ġm",
        "e"
      ],
      [
        "i",
        "t"
      ],
      [
        "'",
        "s"
      ],
      [
        "Ġi",
        "s"
      ],
      [
        "g",
        "h"
      ],
      [
        "en",
        "t"
      ],
      [
        "Ġth",
        "at"
      ],
      [
        "Ġf",
        "or"
      ],
      [
        "o",
        "o"
      ],
      [
        "i",
        "m"
      ],
      [
        "Ġno",
        "t"
      ],
      [
        "ou",
        "r"
      ],
      [
        "e",
        "a"
      ],
      [
        "a",
        "s"
      ],
      [
        "Ġwi",
        "th"
      ],
      [
        "w",
        "h"
      ],
      [
        "r",
        "o"
      ],
      [
        "Ġi",
        "t"
      ],
      [
        "Ġ",
        "k"
      ],
      [
        "om",
        "e"
      ],
      [
        "Ġyou",
        "r"
      ],
      [
        "Ġ",
        "e"
      ],
      [
        "i",
        "o"
      ],
      [
        "a",
        "d"
      ],
      [
        "a",
        "l"
      ],
      [
        "u",
        "n"
      ],
      [
        "Ġth",
        "ou"
      ],
      [
        "Ġs",
        "t"
      ],
      [
        "th",
        "er"
      ],
      [
        "a",
        "ll"
      ],
      [
        "es",
        "t"
      ],
      [
        "'",
        "d"
      ],
      [
        "or",
        "d"
      ],
      [
        "a",
        "m"
      ],
      [
        "Ġw",
        "e"
      ],
      [
        "Ġh",
        "is"
      ],
      [
        "ar",
        "d"
      ],
      [
        "l",
        "y"
      ],
      [
        "gh",
        "t"
      ],
      [
        "u",
        "r"
      ],
      [
        "Ġha",
        "ve"
      ],
      [
        "i",
        "d"
      ],
      [
        "Ġl",
        "i"
      ],
      [
        "Ġh",
        "im"
      ],
      [
        "Ġth",
        "is"
      ],
      [
        "r",
        "a"
      ],
      [
        "es",
        "s"
      ],
      [
        "c",
        "k"
      ],
      [
        "Ġ",
        "v"
      ],
      [
        "Ġs",
        "o"
      ],
      [
        "Ġa",
        "s"
      ],
      [
        "Ġ",
        "on"
      ],
      [
        "Ġd",
        "o"
      ],
      [
        "f",
        "or"
      ],
      [
        "th",
        "e"
      ],
      [
        "t",
        "o"
      ],
      [
        "ou",
        "ld"
      ],
      [
        "oo",
        "d"
      ],
      [
        "l",
        "i"
      ],
      [
        "a",
        "in"
      ],
      [
        "Ġ",
        "re"
      ],
      [
        "g",
        "e"
      ],
      [
        "r",
        "u"
      ],
      [
        "Ġth",
        "y"
      ],
      [
        "Ġwi",
        "ll"
      ],
      [
        "Ġb",
        "ut"
      ],
      [
        "v",
        "er"
      ],
      [
        "e",
        "ll"
      ],
      [
        "e",
        "ar"
      ],
      [
        "i",
        "on"
      ],
      [
        "Ġf",
        "a"
      ],
      [
        "e",
        "e"
      ],
      [
        "Ġa",
        "ll"
      ],
      [
        "u",
        "p"
      ],
      [
        "a",
        "ke"
      ],
      [
        "Ġh",
        "er"
      ],
      [
        "q",
        "u"
      ],
      [
        "en",
        "d"
      ],
      [
        "Ġ",
        "r"
      ],
      [
        "i",
        "ll"
      ],
      [
        "t",
        "er"
      ],
      [
        "Ġl",
        "o"
      ],
      [
        "Ġp",
        "r"
      ],
      [
        "Ġs",
        "p"
      ],
      [
        "Ġg",
        "o"
      ],
      [
        "Ġwh",
        "at"
      ],
      [
        "Ġthe",
        "e"
      ],
      [
        "Ġc",
        "h"
      ],
      [
        "Ġ",
        "our"
      ],
      [
        "Ġb",
        "y"
      ],
      [
        "Ġsh",
        "all"
      ],
      [
        "r",
        "y"
      ],
      [
        "Ġl",
        "ord"
      ],
      [
        "a",
        "st"
      ],
      [
        "n",
        "ow"
      ],
      [
        "en",
        "ce"
      ],
      [
        "Ġa",
        "re"
      ],
      [
        "an",
        "t"
      ],
      [
        "th",
        "at"
      ],
      [
        "or",
        "e"
      ],
      [
        "Ġn",
        "e"
      ],
      [
        "Ġf",
        "r"
      ],
      [
        "n",
        "o"
      ],
      [
        "w",
        "i"
      ],
      [
        "Ġ",
        "un"
      ],
      [
        "ou",
        "n"
      ],
      [
        "Ġs",
        "u"
      ],
      [
        "i",
        "l"
      ],
      [
        "ou",
        "s"
      ],
      [
        "c",
        "t"
      ],
      [
        "Ġb",
        "o"
      ],
      [
        "i",
        "us"
      ],
      [
        "on",
        "e"
      ],
      [
        "u",
        "l"
      ],
      [
        "Ġ",
        "'"
      ],
      [
        "Ġ",
        "up"
      ],
      [
        "se",
        "l"
      ],
      [
        "Ġc",
        "on"
      ],
      [
        "Ġg",
        "ood"
      ],
      [
        "f",
        "e"
      ],
      [
        "ar",
        "t"
      ],
      [
        "Ġ",
        "ri"
      ],
      [
        "a",
        "b"
      ],
      [
        "in",
        "e"
      ],
      [
        "Ġc",
        "om"
      ],
      [
        "k",
        "ing"
      ],
      [
        "i",
        "ch"
      ],
      [
        "u",
        "st"
      ],
      [
        "'",
        "ll"
      ],
      [
        "i",
        "ght"
      ],
      [
        "Ġa",
        "t"
      ],
      [
        "b",
        "ut"
      ],
      [
        "Ġm",
        "an"
      ],
      [
        "Ġm",
        "o"
      ],
      [
        "Ġa",
        "m"
      ],
      [
        "s",
        "h"
      ],
      [
        "r",
        "ow"
      ],
      [
        "Ġd",
        "e"
      ],
      [
        "Ġk",
        "ing"
      ],
      [
        "at",
        "e"
      ],
      [
        "Ġb",
        "l"
      ],
      [
        "a",
        "p"
      ],
      [
        "w",
        "e"
      ],
      [
        "a",
        "u"
      ],
      [
        "on",
        "g"
      ],
      [
        "Ġs",
        "ir"
      ],
      [
        "ou",
        "t"
      ],
      [
        "Ġfr",
        "om"
      ],
      [
        "v",
        "en"
      ],
      [
        "Ġi",
        "f"
      ],
      [
        "Ġm",
        "ore"
      ],
      [
        "Ġn",
        "ow"
      ],
      [
        "Ġw",
        "as"
      ],
      [
        "m",
        "y"
      ],
      [
        "Ġ",
        "j"
      ],
      [
        "Ġthe",
        "m"
      ],
      [
        "i",
        "c"
      ],
      [
        "er",
        "s"
      ],
      [
        "Ġm",
        "ar"
      ],
      [
        "am",
        "e"
      ],
      [
        "Ġth",
        "ere"
      ],
      [
        "Ġh",
        "ere"
      ],
      [
        "i",
        "e"
      ],
      [
        "in",
        "d"
      ],
      [
        "Ġd",
        "ea"
      ],
      [
        "i",
        "ve"
      ],
      [
        "o",
        "l"
      ],
      [
        "w",
        "ard"
      ],
      [
        "Ġc",
        "an"
      ],
      [
        "Ġw",
        "ould"
      ],
      [
        "u",
        "ke"
      ],
      [
        "Ġsh",
        "e"
      ],
      [
        "u",
        "m"
      ],
      [
        "Ġk",
        "now"
      ],
      [
        "wh",
        "at"
      ],
      [
        "is",
        "h"
      ],
      [
        "sel",
        "f"
      ],
      [
        "e",
        "en"
      ],
      [
        "Ġs",
        "ay"
      ],
      [
        "Ġlo",
        "ve"
      ],
      [
        "Ġthe",
        "ir"
      ],
      [
        "Ġ",
        "us"
      ],
      [
        "Ġs",
        "ee"
      ],
      [
        "Ġ",
        "or"
      ],
      [
        "Ġc",
        "ome"
      ],
      [
        "-",
        "-"
      ],
      [
        "Ġthe",
        "y"
      ],
      [
        "Ġth",
        "an"
      ],
      [
        "Ġl",
        "et"
      ],
      [
        "'",
        "t"
      ],
      [
        "Ġa",
        "r"
      ],
      [
        "i",
        "f"
      ],
      [
        "ar",
        "e"
      ],
      [
        "e",
        "p"
      ],
      [
        "Ġth",
        "en"
      ],
      [
        "Ġw",
        "or"
      ],
      [
        "on",
        "d"
      ],
      [
        "Ġm",
        "ay"
      ],
      [
        "Ġri",
        "ch"
      ],
      [
        "for",
        "e"
      ],
      [
        "o",
        "se"
      ],
      [
        "u",
        "re"
      ],
      [
        "Ġ",
        "qu"
      ],
      [
        "o",
        "p"
      ],
      [
        "Ġwe",
        "ll"
      ],
      [
        "h",
        "e"
      ],
      [
        "is",
        "t"
      ],
      [
        "i",
        "g"
      ],
      [
        "v",
        "es"
      ],
      [
        "Ġ",
        "en"
      ],
      [
        "in",
        "k"
      ],
      [
        "Ġp",
        "ro"
      ],
      [
        "a",
        "th"
      ],
      [
        "Ġp",
        "o"
      ],
      [
        "Ġon",
        "e"
      ],
      [
        "oo",
        "k"
      ],
      [
        "Ġha",
        "th"
      ],
      [
        "b",
        "le"
      ],
      [
        "ir",
        "st"
      ],
      [
        "ea",
        "k"
      ],
      [
        "u",
        "e"
      ],
      [
        "c",
        "ent"
      ],
      [
        "Ġm",
        "ake"
      ],
      [
        "Ġp",
        "l"
      ],
      [
        "b",
        "e"
      ],
      [
        "g",
        "ain"
      ],
      [
        "or",
        "t"
      ],
      [
        "o",
        "f"
      ],
      [
        "Ġm",
        "ust"
      ],
      [
        "oun",
        "d"
      ],
      [
        "Ġw",
        "ere"
      ],
      [
        "y",
        "ou"
      ],
      [
        "ad",
        "y"
      ],
      [
        "no",
        "t"
      ],
      [
        "Ġt",
        "ru"
      ],
      [
        "Ġli",
        "ke"
      ],
      [
        "g",
        "l"
      ],
      [
        "ed",
        "ward"
      ],
      [
        "Ġm",
        "ad"
      ],
      [
        "Ġd",
        "id"
      ],
      [
        "Ġsh",
        "ould"
      ],
      [
        "Ġw",
        "ar"
      ],
      [
        "e",
        "m"
      ],
      [
        "l",
        "o"
      ],
      [
        "u",
        "ch"
      ],
      [
        "Ġg",
        "ra"
      ],
      [
        "Ġfa",
        "ther"
      ],
      [
        "cent",
        "io"
      ],
      [
        "Ġs",
        "a"
      ],
      [
        "Ġha",
        "d"
      ],
      [
        "Ġrich",
        "ard"
      ],
      [
        "Ġg",
        "re"
      ],
      [
        "Ġup",
        "on"
      ],
      [
        "Ġto",
        "o"
      ],
      [
        "it",
        "y"
      ],
      [
        "wi",
        "th"
      ],
      [
        "ow",
        "n"
      ],
      [
        "im",
        "e"
      ],
      [
        "m",
        "an"
      ],
      [
        "Ġs",
        "ome"
      ],
      [
        "in",
        "ce"
      ],
      [
        "Ġdea",
        "th"
      ],
      [
        "c",
        "ome"
      ],
      [
        "p",
        "p"
      ],
      [
        "Ġh",
        "ow"
      ],
      [
        "Ġf",
        "ri"
      ],
      [
        "th",
        "ou"
      ],
      [
        "or",
        "k"
      ],
      [
        "en",
        "ry"
      ],
      [
        "an",
        "ce"
      ],
      [
        "Ġb",
        "ro"
      ],
      [
        "c",
        "l"
      ],
      [
        "o",
        "ld"
      ],
      [
        "d",
        "uke"
      ],
      [
        "ent",
        "le"
      ],
      [
        "d",
        "er"
      ],
      [
        "Ġ",
        "out"
      ],
      [
        "Ġwh",
        "ich"
      ],
      [
        "Ġsp",
        "eak"
      ],
      [
        "Ġy",
        "et"
      ],
      [
        "wh",
        "ich"
      ],
      [
        "est",
        "er"
      ],
      [
        "Ġ",
        "edward"
      ],
      [
        "ome",
        "o"
      ],
      [
        "Ġa",
        "gain"
      ],
      [
        "f",
        "f"
      ],
      [
        "i",
        "ce"
      ],
      [
        "Ġhe",
        "art"
      ],
      [
        "f",
        "ul"
      ],
      [
        "le",
        "t"
      ],
      [
        "Ġwh",
        "en"
      ],
      [
        "Ġh",
        "and"
      ],
      [
        "Ġgo",
        "d"
      ],
      [
        "ing",
        "s"
      ],
      [
        "Ġof",
        "f"
      ],
      [
        "a",
        "k"
      ],
      [
        "b",
        "y"
      ],
      [
        "c",
        "ester"
      ],
      [
        "e",
        "l"
      ],
      [
        "p",
        "er"
      ],
      [
        "ou",
        "cester"
      ],
      [
        "s",
        "o"
      ],
      [
        "Ġh",
        "on"
      ],
      [
        "Ġm",
        "ine"
      ],
      [
        "on",
        "t"
      ],
      [
        "g",
        "o"
      ],
      [
        "m",
        "en"
      ],
      [
        "Ġs",
        "on"
      ],
      [
        "or",
        "n"
      ],
      [
        "Ġl",
        "ea"
      ],
      [
        "a",
        "ck"
      ],
      [
        "Ġ",
        "ro"
      ],
      [
        "Ġt",
        "ime"
      ],
      [
        "Ġg",
        "entle"
      ],
      [
        "Ġd",
        "is"
      ],
      [
        "r",
        "an"
      ],
      [
        "Ġhe",
        "ar"
      ],
      [
        "ig",
        "n"
      ],
      [
        "i",
        "re"
      ],
      [
        "i",
        "es"
      ],
      [
        "Ġe",
        "ar"
      ],
      [
        "w",
        "n"
      ],
      [
        "Ġhe",
        "a"
      ],
      [
        "t",
        "y"
      ],
      [
        "b",
        "er"
      ],
      [
        "w",
        "ell"
      ],
      [
        "i",
        "an"
      ],
      [
        "Ġsu",
        "ch"
      ],
      [
        "o",
        "st"
      ],
      [
        "Ġg",
        "ive"
      ],
      [
        "Ġbro",
        "ther"
      ],
      [
        "f",
        "irst"
      ],
      [
        "n",
        "ess"
      ],
      [
        "Ġa",
        "b"
      ],
      [
        "Ġa",
        "l"
      ],
      [
        "Ġc",
        "l"
      ],
      [
        "Ġs",
        "er"
      ],
      [
        "Ġha",
        "st"
      ],
      [
        "wh",
        "y"
      ],
      [
        "Ġbl",
        "ood"
      ],
      [
        "Ġthe",
        "se"
      ],
      [
        "Ġwh",
        "ere"
      ],
      [
        "Ġe",
        "x"
      ],
      [
        "t",
        "is"
      ],
      [
        "a",
        "ve"
      ],
      [
        "Ġt",
        "ell"
      ],
      [
        "p",
        "et"
      ],
      [
        "Ġt",
        "ake"
      ],
      [
        "a",
        "ge"
      ],
      [
        "Ġd",
        "ay"
      ],
      [
        "Ġs",
        "w"
      ],
      [
        "Ġi",
        "i"
      ],
      [
        "is",
        "e"
      ],
      [
        "Ġb",
        "re"
      ],
      [
        "Ġy",
        "ork"
      ],
      [
        "Ġli",
        "fe"
      ],
      [
        "wi",
        "ck"
      ],
      [
        "a",
        "g"
      ],
      [
        "in",
        "centio"
      ],
      [
        "Ġe",
        "y"
      ],
      [
        "ou",
        "l"
      ],
      [
        "er",
        "y"
      ],
      [
        "Ġw",
        "ord"
      ],
      [
        "Ġe",
        "ver"
      ],
      [
        "gl",
        "oucester"
      ],
      [
        "Ġfri",
        "end"
      ],
      [
        "i",
        "z"
      ],
      [
        "l",
        "ing"
      ],
      [
        "Ġth",
        "ink"
      ],
      [
        "h",
        "ow"
      ],
      [
        "i",
        "ther"
      ],
      [
        "Ġl",
        "ook"
      ],
      [
        "Ġn",
        "or"
      ],
      [
        "i",
        "ous"
      ],
      [
        "v",
        "ing"
      ],
      [
        "Ġd",
        "es"
      ],
      [
        "d",
        "e"
      ],
      [
        "p",
        "e"
      ],
      [
        "u",
        "ck"
      ],
      [
        "i",
        "le"
      ],
      [
        "Ġ",
        "ra"
      ],
      [
        "th",
        "is"
      ],
      [
        "qu",
        "een"
      ],
      [
        "a",
        "w"
      ],
      [
        "en",
        "s"
      ],
      [
        "ur",
        "n"
      ],
      [
        "p",
        "t"
      ],
      [
        "Ġar",
        "t"
      ],
      [
        "Ġmo",
        "st"
      ],
      [
        "io",
        "l"
      ],
      [
        "Ġhon",
        "our"
      ],
      [
        "Ġm",
        "uch"
      ],
      [
        "Ġv",
        "incentio"
      ],
      [
        "p",
        "o"
      ],
      [
        "Ġfa",
        "ir"
      ],
      [
        "Ġs",
        "e"
      ],
      [
        "Ġf",
        "l"
      ],
      [
        "Ġf",
        "ear"
      ],
      [
        "Ġmad",
        "e"
      ],
      [
        "m",
        "ent"
      ],
      [
        "e",
        "f"
      ],
      [
        "h",
        "er"
      ],
      [
        "in",
        "ius"
      ],
      [
        "Ġm",
        "en"
      ],
      [
        "i",
        "gh"
      ],
      [
        "we",
        "et"
      ],
      [
        "y",
        "our"
      ],
      [
        "Ġb",
        "r"
      ],
      [
        "au",
        "ght"
      ],
      [
        "Ġbe",
        "t"
      ],
      [
        "p",
        "ro"
      ],
      [
        "wh",
        "ere"
      ],
      [
        "l",
        "u"
      ],
      [
        "ve",
        "d"
      ],
      [
        "Ġp",
        "er"
      ],
      [
        "a",
        "se"
      ],
      [
        "i",
        "ld"
      ],
      [
        "s",
        "s"
      ],
      [
        "Ġh",
        "enry"
      ],
      [
        "Ġne",
        "ver"
      ],
      [
        "row",
        "n"
      ],
      [
        "Ġgre",
        "at"
      ],
      [
        "ch",
        "io"
      ],
      [
        "ru",
        "chio"
      ],
      [
        "n",
        "e"
      ],
      [
        "or",
        "row"
      ],
      [
        "ur",
        "se"
      ],
      [
        "Ġne",
        "w"
      ],
      [
        "r",
        "omeo"
      ],
      [
        "th",
        "ing"
      ],
      [
        "Ġa",
        "d"
      ],
      [
        "at",
        "ion"
      ],
      [
        "Ġhea",
        "ven"
      ],
      [
        "c",
        "c"
      ],
      [
        "t",
        "s"
      ],
      [
        "Ġc",
        "oun"
      ],
      [
        "in",
        "a"
      ],
      [
        "Ġwh",
        "o"
      ],
      [
        "ast",
        "er"
      ],
      [
        "th",
        "y"
      ],
      [
        "an",
        "g"
      ],
      [
        "Ġp",
        "art"
      ],
      [
        "Ġj",
        "o"
      ],
      [
        "Ġc",
        "all"
      ],
      [
        "Ġpr",
        "ay"
      ],
      [
        "Ġf",
        "o"
      ],
      [
        "c",
        "ond"
      ],
      [
        "ou",
        "gh"
      ],
      [
        "or",
        "iol"
      ],
      [
        "an",
        "us"
      ],
      [
        "oriol",
        "anus"
      ],
      [
        "n",
        "or"
      ],
      [
        "p",
        "r"
      ],
      [
        "t",
        "le"
      ],
      [
        "Ġs",
        "l"
      ],
      [
        "Ġan",
        "y"
      ],
      [
        "Ġst",
        "and"
      ],
      [
        "Ġcom",
        "m"
      ],
      [
        "ear",
        "s"
      ],
      [
        "u",
        "li"
      ],
      [
        "Ġs",
        "c"
      ],
      [
        "Ġs",
        "weet"
      ],
      [
        "Ġtru",
        "e"
      ],
      [
        "Ġcan",
        "not"
      ],
      [
        "Ġa",
        "w"
      ],
      [
        "en",
        "ius"
      ],
      [
        "Ġn",
        "ame"
      ],
      [
        "re",
        "e"
      ],
      [
        "Ġbe",
        "en"
      ],
      [
        "as",
        "s"
      ],
      [
        "Ġdo",
        "th"
      ],
      [
        ",",
        "--"
      ],
      [
        "c",
        "om"
      ],
      [
        "Ġd",
        "uke"
      ],
      [
        "Ġp",
        "le"
      ],
      [
        "uli",
        "et"
      ],
      [
        "th",
        "en"
      ],
      [
        "er",
        "c"
      ],
      [
        "Ġt",
        "w"
      ],
      [
        "Ġno",
        "ble"
      ],
      [
        "Ġo",
        "wn"
      ],
      [
        "Ġ",
        "ke"
      ],
      [
        "u",
        "ll"
      ],
      [
        "Ġp",
        "re"
      ],
      [
        "b",
        "ro"
      ],
      [
        "Ġh",
        "o"
      ],
      [
        "Ġd",
        "one"
      ],
      [
        "id",
        "e"
      ],
      [
        "m",
        "io"
      ],
      [
        "ou",
        "se"
      ],
      [
        "Ġw",
        "ay"
      ],
      [
        "Ġo",
        "ther"
      ],
      [
        "Ġhe",
        "ad"
      ],
      [
        "Ġme",
        "an"
      ],
      [
        "Ġqu",
        "een"
      ],
      [
        "pet",
        "ruchio"
      ],
      [
        "e",
        "th"
      ],
      [
        "m",
        "s"
      ],
      [
        "al",
        "t"
      ],
      [
        "men",
        "enius"
      ],
      [
        "th",
        "an"
      ],
      [
        "Ġs",
        "oul"
      ],
      [
        "Ġbe",
        "ar"
      ],
      [
        "l",
        "ess"
      ],
      [
        "th",
        "ere"
      ],
      [
        "Ġn",
        "ight"
      ],
      [
        "Ġwor",
        "ld"
      ],
      [
        "g",
        "ar"
      ],
      [
        "Ġm",
        "a"
      ],
      [
        "ow",
        "er"
      ],
      [
        "Ġbe",
        "fore"
      ],
      [
        "Ġbo",
        "th"
      ],
      [
        "aught",
        "er"
      ],
      [
        "b",
        "r"
      ],
      [
        "wh",
        "en"
      ],
      [
        "ab",
        "le"
      ],
      [
        "c",
        "oriolanus"
      ],
      [
        "Ġv",
        "ery"
      ],
      [
        "au",
        "se"
      ],
      [
        "Ġdea",
        "d"
      ],
      [
        "ge",
        "lo"
      ],
      [
        "Ġd",
        "own"
      ],
      [
        "l",
        "and"
      ],
      [
        "Ġth",
        "us"
      ],
      [
        "v",
        "ol"
      ],
      [
        "Ġlea",
        "ve"
      ],
      [
        "s",
        "w"
      ],
      [
        "Ġa",
        "pp"
      ],
      [
        "Ġp",
        "ri"
      ],
      [
        "Ġmy",
        "self"
      ],
      [
        "Ġre",
        "m"
      ],
      [
        "Ġcon",
        "t"
      ],
      [
        "at",
        "ch"
      ],
      [
        "se",
        "cond"
      ],
      [
        "Ġv",
        "i"
      ],
      [
        "t",
        "ed"
      ],
      [
        "Ġbe",
        "ing"
      ],
      [
        "Ġpr",
        "es"
      ],
      [
        "h",
        "am"
      ],
      [
        "m",
        "ar"
      ],
      [
        "ar",
        "ence"
      ],
      [
        "ct",
        "ion"
      ],
      [
        "r",
        "ong"
      ],
      [
        "Ġey",
        "es"
      ],
      [
        "Ġaw",
        "ay"
      ],
      [
        "bro",
        "ke"
      ],
      [
        "Ġi",
        "m"
      ],
      [
        "Ġo",
        "ld"
      ],
      [
        "wh",
        "o"
      ],
      [
        "Ġmo",
        "ther"
      ],
      [
        "Ġpo",
        "or"
      ],
      [
        "i",
        "p"
      ],
      [
        "a",
        "ce"
      ],
      [
        "Ġbe",
        "g"
      ],
      [
        "Ġcon",
        "s"
      ],
      [
        "Ġl",
        "ong"
      ],
      [
        "Ġwi",
        "fe"
      ],
      [
        "it",
        "iz"
      ],
      [
        "Ġgra",
        "ce"
      ],
      [
        "h",
        "is"
      ],
      [
        "Ġli",
        "ve"
      ],
      [
        "Ġch",
        "ild"
      ],
      [
        "r",
        "ess"
      ],
      [
        "Ġa",
        "f"
      ],
      [
        "Ġpr",
        "ince"
      ],
      [
        "Ġl",
        "e"
      ],
      [
        "Ġbo",
        "ling"
      ],
      [
        "Ġii",
        "i"
      ],
      [
        "Ġboling",
        "broke"
      ],
      [
        "Ġm",
        "ight"
      ],
      [
        "Ġw",
        "om"
      ],
      [
        "at",
        "ter"
      ],
      [
        "Ġc",
        "ap"
      ],
      [
        "Ġke",
        "ep"
      ],
      [
        "d",
        "o"
      ],
      [
        "or",
        "s"
      ],
      [
        "it",
        "e"
      ],
      [
        "Ġst",
        "ay"
      ],
      [
        "Ġg",
        "r"
      ],
      [
        "ea",
        "ce"
      ],
      [
        "i",
        "ck"
      ],
      [
        "s",
        "ic"
      ],
      [
        "Ġd",
        "ie"
      ],
      [
        "ell",
        "a"
      ],
      [
        "ab",
        "ella"
      ],
      [
        "uck",
        "ing"
      ],
      [
        "r",
        "en"
      ],
      [
        "Ġcom",
        "es"
      ],
      [
        "Ġfriend",
        "s"
      ],
      [
        "k",
        "s"
      ],
      [
        "Ġc",
        "rown"
      ],
      [
        "Ġl",
        "ady"
      ],
      [
        "Ġg",
        "l"
      ],
      [
        "Ġman",
        "y"
      ],
      [
        "ont",
        "es"
      ],
      [
        "g",
        "re"
      ],
      [
        "l",
        "ady"
      ],
      [
        "Ġh",
        "ouse"
      ],
      [
        "Ġf",
        "oo"
      ],
      [
        "Ġre",
        "p"
      ],
      [
        "ucking",
        "ham"
      ],
      [
        "c",
        "io"
      ],
      [
        "ou",
        "d"
      ],
      [
        "is",
        "on"
      ],
      [
        "Ġr",
        "est"
      ],
      [
        "a",
        "ut"
      ],
      [
        "Ġt",
        "ri"
      ],
      [
        "Ġc",
        "our"
      ],
      [
        "is",
        "s"
      ],
      [
        "is",
        "abella"
      ],
      [
        "Ġthou",
        "ght"
      ],
      [
        "j",
        "uliet"
      ],
      [
        "u",
        "se"
      ],
      [
        "am",
        "ill"
      ],
      [
        "w",
        "ill"
      ],
      [
        "Ġs",
        "et"
      ],
      [
        "ll",
        "ow"
      ],
      [
        "Ġp",
        "e"
      ],
      [
        "Ġli",
        "e"
      ],
      [
        "Ġ",
        "ent"
      ],
      [
        "Ġh",
        "op"
      ],
      [
        "le",
        "ontes"
      ],
      [
        "Ġm",
        "ur"
      ],
      [
        "Ġd",
        "aughter"
      ],
      [
        "Ġwar",
        "wick"
      ],
      [
        "g",
        "er"
      ],
      [
        "at",
        "es"
      ],
      [
        "Ġg",
        "one"
      ],
      [
        "Ġr",
        "es"
      ],
      [
        "ran",
        "io"
      ],
      [
        "Ġbet",
        "ter"
      ],
      [
        "c",
        "ius"
      ],
      [
        "h",
        "ere"
      ],
      [
        "un",
        "t"
      ],
      [
        "Ġt",
        "ong"
      ],
      [
        "Ġd",
        "ear"
      ],
      [
        "Ġg",
        "ri"
      ],
      [
        "Ġno",
        "thing"
      ],
      [
        "c",
        "es"
      ],
      [
        "h",
        "ave"
      ],
      [
        "w",
        "ar"
      ],
      [
        "Ġsh",
        "ow"
      ],
      [
        "it",
        "tle"
      ],
      [
        "t",
        "ain"
      ],
      [
        "Ġc",
        "itiz"
      ],
      [
        "i",
        "a"
      ],
      [
        "i",
        "ed"
      ],
      [
        "Ġe",
        "l"
      ],
      [
        "Ġser",
        "v"
      ],
      [
        "Ġnew",
        "s"
      ],
      [
        "sic",
        "inius"
      ],
      [
        "Ġmur",
        "der"
      ],
      [
        "Ġth",
        "ose"
      ],
      [
        "Ġh",
        "ence"
      ],
      [
        "Ġb",
        "est"
      ],
      [
        "ea",
        "l"
      ],
      [
        "un",
        "e"
      ],
      [
        "Ġcom",
        "p"
      ],
      [
        "ie",
        "ld"
      ],
      [
        "gar",
        "et"
      ],
      [
        "d",
        "y"
      ],
      [
        "s",
        "ir"
      ],
      [
        "u",
        "let"
      ],
      [
        "Ġh",
        "our"
      ],
      [
        "Ġl",
        "ittle"
      ],
      [
        "re",
        "t"
      ],
      [
        "Ġagain",
        "st"
      ],
      [
        "p",
        "s"
      ],
      [
        "Ġs",
        "le"
      ],
      [
        "Ġf",
        "ar"
      ],
      [
        "ard",
        "on"
      ],
      [
        "li",
        "ke"
      ],
      [
        "Ġmar",
        "garet"
      ],
      [
        "Ġthere",
        "fore"
      ],
      [
        "Ġgentle",
        "man"
      ],
      [
        "f",
        "t"
      ],
      [
        "n",
        "ay"
      ],
      [
        "Ġm",
        "aster"
      ],
      [
        "Ġyou",
        "n"
      ],
      [
        "re",
        "d"
      ],
      [
        "Ġst",
        "ill"
      ],
      [
        "li",
        "ff"
      ],
      [
        "ak",
        "es"
      ],
      [
        "Ġ",
        "end"
      ],
      [
        "or",
        "se"
      ],
      [
        "Ġi",
        "v"
      ],
      [
        "Ġf",
        "irst"
      ],
      [
        "Ġp",
        "ut"
      ],
      [
        "Ġwh",
        "y"
      ],
      [
        "Ġk",
        "n"
      ],
      [
        "amill",
        "o"
      ],
      [
        "g",
        "ood"
      ],
      [
        "w",
        "as"
      ],
      [
        "Ġ",
        "ea"
      ],
      [
        "Ġth",
        "ing"
      ],
      [
        "Ġg",
        "u"
      ],
      [
        "Ġk",
        "ind"
      ],
      [
        "c",
        "al"
      ],
      [
        "l",
        "ord"
      ],
      [
        "in",
        "s"
      ],
      [
        "ar",
        "k"
      ],
      [
        "Ġp",
        "ower"
      ],
      [
        "lu",
        "cio"
      ],
      [
        "a",
        "le"
      ],
      [
        "c",
        "ious"
      ],
      [
        "l",
        "t"
      ],
      [
        "Ġc",
        "o"
      ],
      [
        "Ġp",
        "ur"
      ],
      [
        "Ġp",
        "eace"
      ],
      [
        "Ġtw",
        "o"
      ],
      [
        "b",
        "l"
      ],
      [
        "f",
        "r"
      ],
      [
        "z",
        "ab"
      ],
      [
        "Ġa",
        "cc"
      ],
      [
        "Ġh",
        "igh"
      ],
      [
        "Ġe",
        "li"
      ],
      [
        "Ġhim",
        "self"
      ],
      [
        "Ġfa",
        "ce"
      ],
      [
        "Ġch",
        "ar"
      ],
      [
        "sh",
        "all"
      ],
      [
        "zab",
        "eth"
      ],
      [
        "Ġeli",
        "zabeth"
      ],
      [
        "h",
        "enry"
      ],
      [
        "Ġs",
        "m"
      ],
      [
        "in",
        "ess"
      ],
      [
        "ar",
        "ina"
      ],
      [
        "ri",
        "ed"
      ],
      [
        "Ġel",
        "se"
      ],
      [
        "ell",
        "ow"
      ],
      [
        "Ġun",
        "to"
      ],
      [
        "Ġsu",
        "b"
      ],
      [
        "ath",
        "arina"
      ],
      [
        "Ġtong",
        "ue"
      ],
      [
        "war",
        "wick"
      ],
      [
        "a",
        "il"
      ],
      [
        "w",
        "ere"
      ],
      [
        "ou",
        "ght"
      ],
      [
        "Ġs",
        "en"
      ],
      [
        "Ġb",
        "id"
      ],
      [
        "Ġb",
        "ack"
      ],
      [
        "Ġt",
        "ill"
      ],
      [
        "ee",
        "ch"
      ],
      [
        "sh",
        "e"
      ],
      [
        "ist",
        "a"
      ],
      [
        "e",
        "ct"
      ],
      [
        "Ġh",
        "us"
      ],
      [
        "Ġc",
        "ould"
      ],
      [
        "Ġd",
        "re"
      ],
      [
        "Ġhe",
        "l"
      ],
      [
        "Ġword",
        "s"
      ],
      [
        "Ġyoun",
        "g"
      ],
      [
        "b",
        "and"
      ],
      [
        "Ġb",
        "ri"
      ],
      [
        "Ġf",
        "ind"
      ],
      [
        "Ġlord",
        "s"
      ],
      [
        "Ġcon",
        "f"
      ],
      [
        "Ġear",
        "th"
      ],
      [
        "c",
        "ed"
      ],
      [
        "y",
        "al"
      ],
      [
        "Ġth",
        "ine"
      ],
      [
        "an",
        "ish"
      ],
      [
        "Ġt",
        "ra"
      ],
      [
        "al",
        "k"
      ],
      [
        "Ġne",
        "ed"
      ],
      [
        "or",
        "y"
      ],
      [
        "Ġfor",
        "th"
      ],
      [
        "ap",
        "t"
      ],
      [
        "op",
        "le"
      ],
      [
        "Ġhop",
        "e"
      ],
      [
        "a",
        "ul"
      ],
      [
        "Ġh",
        "ome"
      ],
      [
        "re",
        "at"
      ],
      [
        "Ġr",
        "omeo"
      ],
      [
        "are",
        "well"
      ],
      [
        "Ġhus",
        "band"
      ],
      [
        "c",
        "le"
      ],
      [
        "u",
        "d"
      ],
      [
        "Ġthou",
        "gh"
      ],
      [
        "Ġri",
        "ght"
      ],
      [
        "ist",
        "ress"
      ],
      [
        "n",
        "urse"
      ],
      [
        "i",
        "er"
      ],
      [
        "x",
        "t"
      ],
      [
        "Ġm",
        "ind"
      ],
      [
        "is",
        "ter"
      ],
      [
        "ort",
        "ens"
      ],
      [
        "Ġfo",
        "llow"
      ],
      [
        "Ġpe",
        "ople"
      ],
      [
        "h",
        "old"
      ],
      [
        "o",
        "t"
      ],
      [
        "t",
        "ranio"
      ],
      [
        "Ġb",
        "ra"
      ],
      [
        "Ġl",
        "a"
      ],
      [
        "ir",
        "d"
      ],
      [
        "us",
        "h"
      ],
      [
        "as",
        "on"
      ],
      [
        "Ġon",
        "ce"
      ],
      [
        "Ġcitiz",
        "en"
      ],
      [
        "fr",
        "om"
      ],
      [
        "apt",
        "ista"
      ],
      [
        "Ġ",
        "ru"
      ],
      [
        "Ġt",
        "re"
      ],
      [
        "Ġfor",
        "t"
      ],
      [
        "ain",
        "t"
      ],
      [
        "um",
        "ber"
      ],
      [
        "ortens",
        "io"
      ],
      [
        "a",
        "ir"
      ],
      [
        "y",
        "et"
      ],
      [
        "Ġl",
        "aw"
      ],
      [
        "ut",
        "us"
      ],
      [
        "for",
        "t"
      ],
      [
        "the",
        "y"
      ],
      [
        "Ġhand",
        "s"
      ],
      [
        "Ġs",
        "un"
      ],
      [
        "Ġsa",
        "id"
      ],
      [
        "l",
        "come"
      ],
      [
        "Ġn",
        "at"
      ],
      [
        "Ġn",
        "one"
      ],
      [
        "ous",
        "in"
      ],
      [
        "Ġbr",
        "ing"
      ],
      [
        "Ġjo",
        "y"
      ],
      [
        "i",
        "ence"
      ],
      [
        "o",
        "ther"
      ],
      [
        "Ġo",
        "ver"
      ],
      [
        "br",
        "utus"
      ],
      [
        "b",
        "uckingham"
      ],
      [
        "i",
        "th"
      ],
      [
        "Ġb",
        "es"
      ],
      [
        "Ġd",
        "ou"
      ],
      [
        "Ġp",
        "ass"
      ],
      [
        "Ġli",
        "ght"
      ],
      [
        "Ġever",
        "y"
      ],
      [
        "sw",
        "er"
      ],
      [
        "s",
        "ed"
      ],
      [
        "s",
        "per"
      ],
      [
        "Ġc",
        "ause"
      ],
      [
        "Ġr",
        "ome"
      ],
      [
        "Ġcoun",
        "t"
      ],
      [
        "d",
        "ay"
      ],
      [
        "e",
        "ed"
      ],
      [
        "v",
        "ost"
      ],
      [
        "Ġha",
        "pp"
      ],
      [
        "it",
        "s"
      ],
      [
        "Ġbo",
        "y"
      ],
      [
        "Ġt",
        "y"
      ],
      [
        "Ġt",
        "ears"
      ],
      [
        "Ġc",
        "ur"
      ],
      [
        "Ġc",
        "ame"
      ],
      [
        "Ġwh",
        "ose"
      ],
      [
        "Ġj",
        "ust"
      ],
      [
        "i",
        "ent"
      ],
      [
        "m",
        "ore"
      ],
      [
        "Ġ",
        "ere"
      ],
      [
        "Ġth",
        "r"
      ],
      [
        "Ġs",
        "ince"
      ],
      [
        "Ġf",
        "ellow"
      ],
      [
        "Ġp",
        "ardon"
      ],
      [
        "Ġg",
        "a"
      ],
      [
        "ur",
        "y"
      ],
      [
        "Ġde",
        "v"
      ],
      [
        "v",
        "y"
      ],
      [
        "w",
        "ould"
      ],
      [
        "Ġs",
        "ea"
      ],
      [
        "Ġw",
        "rong"
      ],
      [
        "an",
        "gelo"
      ],
      [
        "Ġt",
        "r"
      ],
      [
        "Ġf",
        "ull"
      ],
      [
        "Ġl",
        "and"
      ],
      [
        "Ġhe",
        "ard"
      ],
      [
        "Ġsh",
        "ame"
      ],
      [
        "li",
        "e"
      ],
      [
        "ru",
        "mio"
      ],
      [
        "ver",
        "s"
      ],
      [
        "ee",
        "l"
      ],
      [
        "Ġpres",
        "ent"
      ],
      [
        "f",
        "id"
      ],
      [
        "Ġm",
        "is"
      ],
      [
        "es",
        "cal"
      ],
      [
        "Ġl",
        "ast"
      ],
      [
        "Ġan",
        "swer"
      ],
      [
        "ri",
        "ch"
      ],
      [
        "Ġme",
        "et"
      ],
      [
        "Ġk",
        "ill"
      ],
      [
        "Ġst",
        "ate"
      ],
      [
        "Ġpl",
        "ace"
      ],
      [
        "ag",
        "ue"
      ],
      [
        "liff",
        "ord"
      ],
      [
        "Ġhel",
        "p"
      ],
      [
        "escal",
        "us"
      ],
      [
        "k",
        "atharina"
      ],
      [
        "s",
        "and"
      ],
      [
        "Ġh",
        "ar"
      ],
      [
        "in",
        "t"
      ],
      [
        "Ġp",
        "at"
      ],
      [
        "om",
        "pe"
      ],
      [
        "Ġun",
        "der"
      ],
      [
        "Ġro",
        "yal"
      ],
      [
        "Ġaf",
        "ter"
      ],
      [
        "ompe",
        "y"
      ],
      [
        "b",
        "o"
      ],
      [
        "h",
        "ath"
      ],
      [
        "ou",
        "ch"
      ],
      [
        "Ġs",
        "orrow"
      ],
      [
        "Ġh",
        "old"
      ],
      [
        "Ġm",
        "erc"
      ],
      [
        "Ġb",
        "anish"
      ],
      [
        "Ġc",
        "ar"
      ],
      [
        "Ġwh",
        "om"
      ],
      [
        "it",
        "ion"
      ],
      [
        "Ġthou",
        "sand"
      ],
      [
        "est",
        "y"
      ],
      [
        "i",
        "v"
      ],
      [
        "j",
        "o"
      ],
      [
        "o",
        "ly"
      ],
      [
        "p",
        "l"
      ],
      [
        "en",
        "es"
      ],
      [
        "Ġwe",
        "ep"
      ],
      [
        "sel",
        "ves"
      ],
      [
        "Ġple",
        "ase"
      ],
      [
        "l",
        "ed"
      ],
      [
        "Ġh",
        "ither"
      ],
      [
        "Ġf",
        "al"
      ],
      [
        "Ġl",
        "ess"
      ],
      [
        "Ġp",
        "ar"
      ],
      [
        "ce",
        "ive"
      ],
      [
        "ut",
        "io"
      ],
      [
        "au",
        "d"
      ],
      [
        "Ġab",
        "out"
      ],
      [
        "Ġey",
        "e"
      ],
      [
        "f",
        "ri"
      ],
      [
        "g",
        "ed"
      ],
      [
        "p",
        "le"
      ],
      [
        "ar",
        "y"
      ],
      [
        "Ġc",
        "ousin"
      ],
      [
        "Ġwi",
        "lt"
      ],
      [
        "sh",
        "ip"
      ],
      [
        "fid",
        "ius"
      ],
      [
        "b",
        "t"
      ],
      [
        "f",
        "ord"
      ],
      [
        "th",
        "umber"
      ],
      [
        "Ġf",
        "all"
      ],
      [
        "ir",
        "t"
      ],
      [
        "Ġbre",
        "ath"
      ],
      [
        "Ġma",
        "id"
      ],
      [
        "aud",
        "io"
      ],
      [
        "thumber",
        "land"
      ],
      [
        "Ġh",
        "ate"
      ],
      [
        "Ġin",
        "to"
      ],
      [
        "ee",
        "p"
      ],
      [
        "Ġgra",
        "cious"
      ],
      [
        "Ġgri",
        "ef"
      ],
      [
        "c",
        "ap"
      ],
      [
        "c",
        "amillo"
      ],
      [
        "j",
        "ect"
      ],
      [
        "Ġs",
        "up"
      ],
      [
        "Ġm",
        "akes"
      ],
      [
        "ad",
        "e"
      ],
      [
        "Ġst",
        "ri"
      ],
      [
        "Ġdo",
        "st"
      ],
      [
        "uch",
        "ess"
      ],
      [
        "Ġfoo",
        "l"
      ],
      [
        "a",
        "ch"
      ],
      [
        "c",
        "a"
      ],
      [
        "c",
        "us"
      ],
      [
        "k",
        "en"
      ],
      [
        "p",
        "ose"
      ],
      [
        "Ġh",
        "um"
      ],
      [
        "Ġw",
        "o"
      ],
      [
        "Ġt",
        "urn"
      ],
      [
        "as",
        "ure"
      ],
      [
        "up",
        "on"
      ],
      [
        "Ġen",
        "gl"
      ],
      [
        "aul",
        "ina"
      ],
      [
        "d",
        "uchess"
      ],
      [
        "h",
        "ortensio"
      ],
      [
        "m",
        "e"
      ],
      [
        "r",
        "ant"
      ],
      [
        "t",
        "ing"
      ],
      [
        "v",
        "ere"
      ],
      [
        "Ġb",
        "ed"
      ],
      [
        "et",
        "er"
      ],
      [
        "Ġmar",
        "cius"
      ],
      [
        "Ġpl",
        "ay"
      ],
      [
        "thou",
        "gh"
      ],
      [
        "cl",
        "arence"
      ],
      [
        "Ġsle",
        "ep"
      ],
      [
        "c",
        "on"
      ],
      [
        "Ġb",
        "us"
      ],
      [
        "Ġwi",
        "t"
      ],
      [
        "im",
        "es"
      ],
      [
        "Ġe",
        "m"
      ],
      [
        "Ġe",
        "ven"
      ],
      [
        "Ġbo",
        "dy"
      ],
      [
        "fri",
        "ar"
      ],
      [
        "b",
        "alt"
      ],
      [
        "m",
        "orrow"
      ],
      [
        "s",
        "om"
      ],
      [
        "Ġb",
        "u"
      ],
      [
        "Ġsee",
        "m"
      ],
      [
        "Ġpro",
        "ve"
      ],
      [
        "go",
        "d"
      ],
      [
        "Ġcl",
        "arence"
      ],
      [
        "de",
        "ed"
      ],
      [
        "Ġwom",
        "an"
      ],
      [
        "Ġcour",
        "t"
      ],
      [
        "Ġfort",
        "une"
      ],
      [
        "c",
        "y"
      ],
      [
        "h",
        "ast"
      ],
      [
        "i",
        "ly"
      ],
      [
        "m",
        "ost"
      ],
      [
        "t",
        "en"
      ],
      [
        "Ġa",
        "u"
      ],
      [
        "Ġs",
        "ound"
      ],
      [
        "is",
        "ed"
      ],
      [
        "li",
        "x"
      ],
      [
        "Ġfa",
        "ul"
      ],
      [
        "ic",
        "es"
      ],
      [
        "Ġmurder",
        "er"
      ],
      [
        "Ġtra",
        "it"
      ],
      [
        "s",
        "p"
      ],
      [
        "t",
        "ake"
      ],
      [
        "Ġin",
        "st"
      ],
      [
        "Ġha",
        "s"
      ],
      [
        "Ġv",
        "o"
      ],
      [
        "Ġso",
        "ld"
      ],
      [
        "Ġre",
        "t"
      ],
      [
        "Ġde",
        "ed"
      ],
      [
        "her",
        "d"
      ],
      [
        "b",
        "en"
      ],
      [
        "e",
        "ven"
      ],
      [
        "Ġw",
        "ish"
      ],
      [
        "Ġf",
        "ight"
      ],
      [
        "Ġd",
        "r"
      ],
      [
        "Ġan",
        "gelo"
      ],
      [
        "Ġan",
        "other"
      ],
      [
        "Ġin",
        "deed"
      ],
      [
        "ra",
        "w"
      ],
      [
        "Ġv",
        "ill"
      ],
      [
        "Ġcom",
        "fort"
      ],
      [
        "Ġsw",
        "ord"
      ],
      [
        "pro",
        "vost"
      ],
      [
        "Ġad",
        "v"
      ],
      [
        "vol",
        "io"
      ],
      [
        "Ġfal",
        "se"
      ],
      [
        "vere",
        "ign"
      ],
      [
        "lix",
        "enes"
      ],
      [
        "b",
        "aptista"
      ],
      [
        "f",
        "a"
      ],
      [
        "s",
        "ay"
      ],
      [
        "t",
        "end"
      ],
      [
        "Ġ",
        "use"
      ],
      [
        "Ġs",
        "end"
      ],
      [
        "Ġt",
        "alk"
      ],
      [
        "Ġso",
        "vereign"
      ],
      [
        "Ġthan",
        "k"
      ],
      [
        "Ġgra",
        "ve"
      ],
      [
        "ont",
        "ague"
      ],
      [
        "Ġra",
        "ther"
      ],
      [
        "com",
        "inius"
      ],
      [
        "oly",
        "cus"
      ],
      [
        ",",
        "'"
      ],
      [
        "m",
        "erc"
      ],
      [
        "Ġde",
        "li"
      ],
      [
        "pe",
        "ct"
      ],
      [
        "g",
        "ive"
      ],
      [
        "th",
        "ird"
      ],
      [
        "Ġs",
        "ign"
      ],
      [
        "Ġm",
        "atter"
      ],
      [
        "Ġw",
        "ant"
      ],
      [
        "Ġc",
        "are"
      ],
      [
        "Ġre",
        "ven"
      ],
      [
        "Ġre",
        "ason"
      ],
      [
        "Ġpr",
        "ison"
      ],
      [
        "fe",
        "ct"
      ],
      [
        "lu",
        "centio"
      ],
      [
        "aut",
        "olycus"
      ],
      [
        "Ġcount",
        "ry"
      ],
      [
        "lie",
        "ve"
      ],
      [
        ".",
        "'"
      ],
      [
        "f",
        "l"
      ],
      [
        "g",
        "rumio"
      ],
      [
        "Ġy",
        "ears"
      ],
      [
        "ow",
        "s"
      ],
      [
        "Ġli",
        "es"
      ],
      [
        "Ġv",
        "irt"
      ],
      [
        "Ġon",
        "ly"
      ],
      [
        "Ġar",
        "m"
      ],
      [
        "Ġtru",
        "th"
      ],
      [
        "pro",
        "sper"
      ],
      [
        "Ġcap",
        "ulet"
      ],
      [
        "Ġdre",
        "am"
      ],
      [
        "i",
        "or"
      ],
      [
        "Ġm",
        "er"
      ],
      [
        "Ġl",
        "ay"
      ],
      [
        "Ġp",
        "ers"
      ],
      [
        "Ġwe",
        "lcome"
      ],
      [
        "Ġas",
        "s"
      ],
      [
        "Ġar",
        "ms"
      ],
      [
        "gain",
        "st"
      ],
      [
        "ian",
        "ca"
      ],
      [
        "Ġdes",
        "er"
      ],
      [
        "Ġnat",
        "ure"
      ],
      [
        "ben",
        "volio"
      ],
      [
        "l",
        "ook"
      ],
      [
        "p",
        "h"
      ],
      [
        "Ġs",
        "ent"
      ],
      [
        "en",
        "er"
      ],
      [
        "re",
        "l"
      ],
      [
        "Ġsh",
        "alt"
      ],
      [
        "Ġsp",
        "ir"
      ],
      [
        "um",
        "n"
      ],
      [
        "Ġmad",
        "am"
      ],
      [
        "cl",
        "own"
      ],
      [
        "Ġcomm",
        "on"
      ],
      [
        "Ġcomm",
        "and"
      ],
      [
        "Ġho",
        "ly"
      ],
      [
        "Ġbus",
        "iness"
      ],
      [
        "merc",
        "utio"
      ],
      [
        "Ġh",
        "ang"
      ],
      [
        "es",
        "h"
      ],
      [
        "at",
        "or"
      ],
      [
        "Ġg",
        "i"
      ],
      [
        "end",
        "er"
      ],
      [
        "Ġpr",
        "om"
      ],
      [
        "Ġen",
        "ough"
      ],
      [
        "Ġsw",
        "ear"
      ],
      [
        "Ġla",
        "ur"
      ],
      [
        "Ġhapp",
        "y"
      ],
      [
        "prosper",
        "o"
      ],
      [
        "d",
        "d"
      ],
      [
        "i",
        "li"
      ],
      [
        "Ġw",
        "ind"
      ],
      [
        "Ġf",
        "ree"
      ],
      [
        "Ġf",
        "arewell"
      ],
      [
        "Ġp",
        "ity"
      ],
      [
        "Ġst",
        "ran"
      ],
      [
        "Ġpr",
        "oud"
      ],
      [
        "Ġrem",
        "em"
      ],
      [
        "Ġcont",
        "ent"
      ],
      [
        "Ġdou",
        "bt"
      ],
      [
        "Ġvill",
        "ain"
      ],
      [
        "Ġlaur",
        "ence"
      ],
      [
        "Ġm",
        "istress"
      ],
      [
        "an",
        "y"
      ],
      [
        "an",
        "ge"
      ],
      [
        "Ġg",
        "et"
      ],
      [
        "ut",
        "y"
      ],
      [
        "Ġk",
        "ate"
      ],
      [
        "Ġk",
        "iss"
      ],
      [
        "Ġli",
        "ves"
      ],
      [
        "Ġv",
        "al"
      ],
      [
        "Ġbes",
        "eech"
      ],
      [
        "e",
        "c"
      ],
      [
        "p",
        "ompey"
      ],
      [
        "p",
        "aulina"
      ],
      [
        "y",
        "ork"
      ],
      [
        "Ġth",
        "ree"
      ],
      [
        "er",
        "tain"
      ],
      [
        "Ġw",
        "atch"
      ],
      [
        "Ġc",
        "ity"
      ],
      [
        "Ġbe",
        "aut"
      ],
      [
        "ut",
        "e"
      ],
      [
        "Ġwith",
        "in"
      ],
      [
        "Ġsa",
        "w"
      ],
      [
        "Ġgod",
        "s"
      ],
      [
        "gre",
        "mio"
      ],
      [
        "Ġs",
        "ister"
      ],
      [
        "er",
        "le"
      ],
      [
        "Ġf",
        "oul"
      ],
      [
        "Ġl",
        "am"
      ],
      [
        "Ġo",
        "b"
      ],
      [
        "Ġde",
        "p"
      ],
      [
        "Ġfri",
        "ar"
      ],
      [
        "Ġser",
        "ving"
      ],
      [
        "Ġserv",
        "ant"
      ],
      [
        "c",
        "an"
      ],
      [
        "th",
        "ink"
      ],
      [
        "Ġw",
        "in"
      ],
      [
        "Ġd",
        "en"
      ],
      [
        "Ġy",
        "ield"
      ],
      [
        "Ġo",
        "ath"
      ],
      [
        "Ġan",
        "ne"
      ],
      [
        "Ġwh",
        "ile"
      ],
      [
        "Ġyour",
        "s"
      ],
      [
        "ge",
        "ther"
      ],
      [
        "Ġmar",
        "k"
      ],
      [
        "ond",
        "er"
      ],
      [
        "po",
        "lixenes"
      ],
      [
        "nor",
        "thumberland"
      ],
      [
        "Ġmean",
        "s"
      ],
      [
        "Ġsub",
        "ject"
      ],
      [
        "umn",
        "ia"
      ],
      [
        "s",
        "er"
      ],
      [
        "Ġth",
        "ings"
      ],
      [
        "Ġh",
        "orse"
      ],
      [
        "Ġb",
        "orn"
      ],
      [
        "an",
        "c"
      ],
      [
        "us",
        "ic"
      ],
      [
        "Ġk",
        "ne"
      ],
      [
        "Ġst",
        "ra"
      ],
      [
        "Ġsp",
        "o"
      ],
      [
        "Ġdis",
        "c"
      ],
      [
        "Ġblood",
        "y"
      ],
      [
        "Ġlook",
        "s"
      ],
      [
        "vol",
        "umnia"
      ],
      [
        "rich",
        "ard"
      ],
      [
        "c",
        "ause"
      ],
      [
        "s",
        "ome"
      ],
      [
        "th",
        "es"
      ],
      [
        "Ġs",
        "it"
      ],
      [
        "Ġw",
        "ound"
      ],
      [
        "en",
        "ch"
      ],
      [
        "en",
        "ger"
      ],
      [
        "Ġt",
        "em"
      ],
      [
        "Ġf",
        "ire"
      ],
      [
        "Ġc",
        "ra"
      ],
      [
        "om",
        "an"
      ],
      [
        "st",
        "and"
      ],
      [
        "Ġyour",
        "self"
      ],
      [
        "Ġfa",
        "ith"
      ],
      [
        "sh",
        "ould"
      ],
      [
        "Ġma",
        "j"
      ],
      [
        "hast",
        "ings"
      ],
      [
        "Ġtrait",
        "or"
      ],
      [
        "Ġserving",
        "man"
      ],
      [
        "l",
        "es"
      ],
      [
        "p",
        "ar"
      ],
      [
        "u",
        "es"
      ],
      [
        "Ġs",
        "in"
      ],
      [
        "Ġb",
        "ar"
      ],
      [
        "Ġd",
        "ang"
      ],
      [
        "un",
        "es"
      ],
      [
        "ess",
        "enger"
      ],
      [
        "for",
        "m"
      ],
      [
        "Ġcon",
        "d"
      ],
      [
        "Ġbre",
        "ak"
      ],
      [
        "Ġim",
        "p"
      ],
      [
        "Ġchild",
        "ren"
      ],
      [
        "b",
        "ra"
      ],
      [
        "Ġa",
        "um"
      ],
      [
        "Ġa",
        "ff"
      ],
      [
        "er",
        "ous"
      ],
      [
        "Ġo",
        "p"
      ],
      [
        "Ġbe",
        "at"
      ],
      [
        "ri",
        "t"
      ],
      [
        "Ġre",
        "qu"
      ],
      [
        "Ġun",
        "cle"
      ],
      [
        "Ġga",
        "unt"
      ],
      [
        "Ġwo",
        "e"
      ],
      [
        "Ġmaj",
        "esty"
      ],
      [
        "Ġaum",
        "erle"
      ],
      [
        "a",
        "h"
      ],
      [
        "d",
        "ell"
      ],
      [
        "h",
        "n"
      ],
      [
        "t",
        "ell"
      ],
      [
        "Ġs",
        "een"
      ],
      [
        "Ġt",
        "ender"
      ],
      [
        "Ġc",
        "or"
      ],
      [
        "Ġl",
        "ate"
      ],
      [
        "Ġl",
        "ef"
      ],
      [
        "Ġp",
        "ain"
      ],
      [
        "Ġto",
        "ld"
      ],
      [
        "Ġso",
        "on"
      ],
      [
        "ion",
        "dell"
      ],
      [
        "Ġch",
        "e"
      ],
      [
        "Ġsu",
        "re"
      ],
      [
        "Ġsa",
        "ve"
      ],
      [
        "Ġday",
        "s"
      ],
      [
        "Ġmerc",
        "y"
      ],
      [
        "Ġengl",
        "and"
      ],
      [
        "Ġlef",
        "t"
      ],
      [
        "iondell",
        "o"
      ],
      [
        "a",
        "im"
      ],
      [
        "d",
        "id"
      ],
      [
        "h",
        "ad"
      ],
      [
        "i",
        "al"
      ],
      [
        "m",
        "er"
      ],
      [
        "m",
        "ay"
      ],
      [
        "Ġs",
        "ight"
      ],
      [
        "Ġm",
        "on"
      ],
      [
        "or",
        "iz"
      ],
      [
        "Ġg",
        "ener"
      ],
      [
        "id",
        "es"
      ],
      [
        "Ġdo",
        "es"
      ],
      [
        "the",
        "e"
      ],
      [
        "Ġgo",
        "ld"
      ],
      [
        "Ġbl",
        "ess"
      ],
      [
        "ol",
        "k"
      ],
      [
        "ates",
        "by"
      ],
      [
        "ret",
        "ch"
      ],
      [
        "Ġret",
        "urn"
      ],
      [
        "Ġpers",
        "on"
      ],
      [
        "d",
        "om"
      ],
      [
        "Ġs",
        "ad"
      ],
      [
        "Ġm",
        "et"
      ],
      [
        "Ġi",
        "ll"
      ],
      [
        "Ġf",
        "e"
      ],
      [
        "Ġf",
        "it"
      ],
      [
        "Ġn",
        "ear"
      ],
      [
        "our",
        "s"
      ],
      [
        "as",
        "h"
      ],
      [
        "ter",
        "s"
      ],
      [
        "Ġmar",
        "ry"
      ],
      [
        "Ġwar",
        "rant"
      ],
      [
        "Ġhea",
        "vy"
      ],
      [
        "pr",
        "ince"
      ],
      [
        "Ġthr",
        "ough"
      ],
      [
        "f",
        "olk"
      ],
      [
        "g",
        "th"
      ],
      [
        "g",
        "et"
      ],
      [
        "Ġh",
        "un"
      ],
      [
        "Ġm",
        "usic"
      ],
      [
        "Ġt",
        "ouch"
      ],
      [
        "Ġc",
        "old"
      ],
      [
        "Ġp",
        "et"
      ],
      [
        "Ġto",
        "gether"
      ],
      [
        "Ġg",
        "row"
      ],
      [
        "Ġbe",
        "lieve"
      ],
      [
        "ent",
        "y"
      ],
      [
        "ro",
        "ss"
      ],
      [
        "Ġsu",
        "ff"
      ],
      [
        "Ġgre",
        "y"
      ],
      [
        "ment",
        "s"
      ],
      [
        "cap",
        "ulet"
      ],
      [
        "f",
        "er"
      ],
      [
        "m",
        "ion"
      ],
      [
        "m",
        "ond"
      ],
      [
        "n",
        "ight"
      ],
      [
        "ou",
        "th"
      ],
      [
        "Ġm",
        "in"
      ],
      [
        "Ġt",
        "it"
      ],
      [
        "Ġt",
        "imes"
      ],
      [
        "at",
        "er"
      ],
      [
        "ce",
        "ed"
      ],
      [
        "ent",
        "s"
      ],
      [
        "Ġwith",
        "out"
      ],
      [
        "wh",
        "ose"
      ],
      [
        "wh",
        "ile"
      ],
      [
        "Ġthy",
        "self"
      ],
      [
        "ear",
        "n"
      ],
      [
        "Ġlo",
        "st"
      ],
      [
        "Ġde",
        "f"
      ],
      [
        "Ġrep",
        "ort"
      ],
      [
        "Ġlie",
        "ge"
      ],
      [
        "Ġpur",
        "pose"
      ],
      [
        "Ġspir",
        "it"
      ],
      [
        "oriz",
        "el"
      ],
      [
        "mion",
        "e"
      ],
      [
        "b",
        "ast"
      ],
      [
        "Ġa",
        "ir"
      ],
      [
        "Ġa",
        "ge"
      ],
      [
        "Ġl",
        "earn"
      ],
      [
        "Ġd",
        "eep"
      ],
      [
        "Ġhe",
        "ir"
      ],
      [
        "Ġwe",
        "ar"
      ],
      [
        "Ġlo",
        "ss"
      ],
      [
        "au",
        "fidius"
      ],
      [
        "Ġsay",
        "s"
      ],
      [
        "Ġhast",
        "e"
      ],
      [
        "there",
        "fore"
      ],
      [
        "Ġfoo",
        "t"
      ],
      [
        "Ġjust",
        "ice"
      ],
      [
        "Ġstran",
        "ge"
      ],
      [
        "Ġremem",
        "ber"
      ],
      [
        "g",
        "s"
      ],
      [
        "g",
        "on"
      ],
      [
        "n",
        "er"
      ],
      [
        "Ġs",
        "il"
      ],
      [
        "Ġh",
        "ard"
      ],
      [
        "Ġf",
        "ly"
      ],
      [
        "Ġc",
        "ry"
      ],
      [
        "Ġc",
        "lifford"
      ],
      [
        "Ġl",
        "u"
      ],
      [
        "re",
        "w"
      ],
      [
        "oo",
        "p"
      ],
      [
        "sh",
        "ep"
      ],
      [
        "Ġj",
        "uliet"
      ],
      [
        "Ġpl",
        "uck"
      ],
      [
        "Ġtru",
        "st"
      ],
      [
        "Ġear",
        "s"
      ],
      [
        "mar",
        "cius"
      ],
      [
        "Ġgr",
        "ound"
      ],
      [
        "Ġent",
        "reat"
      ],
      [
        "Ġdev",
        "il"
      ],
      [
        "thes",
        "e"
      ],
      [
        "h",
        "a"
      ],
      [
        "i",
        "ble"
      ],
      [
        "in",
        "ed"
      ],
      [
        "Ġn",
        "urse"
      ],
      [
        "Ġp",
        "ast"
      ],
      [
        "Ġto",
        "ward"
      ],
      [
        "se",
        "t"
      ],
      [
        "oo",
        "t"
      ],
      [
        "ck",
        "s"
      ],
      [
        "Ġv",
        "is"
      ],
      [
        "Ġfa",
        "st"
      ],
      [
        "Ġr",
        "un"
      ],
      [
        "Ġfr",
        "ance"
      ],
      [
        "Ġsu",
        "it"
      ],
      [
        "Ġbo",
        "ld"
      ],
      [
        "Ġwor",
        "thy"
      ],
      [
        "Ġsl",
        "ain"
      ],
      [
        "Ġfaul",
        "t"
      ],
      [
        "Ġstra",
        "ight"
      ],
      [
        "shep",
        "herd"
      ],
      [
        "a",
        "gainst"
      ],
      [
        "b",
        "id"
      ],
      [
        "e",
        "my"
      ],
      [
        "i",
        "et"
      ],
      [
        "v",
        "o"
      ],
      [
        "Ġ",
        "ord"
      ],
      [
        "Ġw",
        "a"
      ],
      [
        "Ġw",
        "oo"
      ],
      [
        "Ġb",
        "at"
      ],
      [
        "Ġc",
        "a"
      ],
      [
        "Ġwi",
        "d"
      ],
      [
        "le",
        "y"
      ],
      [
        "Ġha",
        "l"
      ],
      [
        "Ġst",
        "rong"
      ],
      [
        "Ġcan",
        "st"
      ],
      [
        "ure",
        "d"
      ],
      [
        "Ġqu",
        "ick"
      ],
      [
        "Ġal",
        "one"
      ],
      [
        "Ġle",
        "w"
      ],
      [
        "Ġserv",
        "ice"
      ],
      [
        "Ġinst",
        "ru"
      ],
      [
        "fl",
        "orizel"
      ],
      [
        "ili",
        "a"
      ],
      [
        "Ġbeaut",
        "y"
      ],
      [
        "bast",
        "ian"
      ],
      [
        "s",
        "u"
      ],
      [
        "v",
        "ent"
      ],
      [
        "Ġf",
        "ound"
      ],
      [
        "Ġy",
        "e"
      ],
      [
        "ow",
        "ard"
      ],
      [
        "ea",
        "ch"
      ],
      [
        "Ġre",
        "ady"
      ],
      [
        "ver",
        "y"
      ],
      [
        "Ġj",
        "ud"
      ],
      [
        "Ġen",
        "emy"
      ],
      [
        "Ġpo",
        "ss"
      ],
      [
        "go",
        "t"
      ],
      [
        "Ġbr",
        "ought"
      ],
      [
        "Ġsen",
        "ator"
      ],
      [
        "Ġreven",
        "ge"
      ],
      [
        "Ġgener",
        "al"
      ],
      [
        "!",
        "'"
      ],
      [
        "a",
        "f"
      ],
      [
        "c",
        "ess"
      ],
      [
        "n",
        "ing"
      ],
      [
        "s",
        "ue"
      ],
      [
        "Ġs",
        "ur"
      ],
      [
        "on",
        "io"
      ],
      [
        "Ġd",
        "uty"
      ],
      [
        "ce",
        "pt"
      ],
      [
        "ut",
        "ion"
      ],
      [
        "Ġit",
        "self"
      ],
      [
        "Ġas",
        "k"
      ],
      [
        "Ġlo",
        "se"
      ],
      [
        "Ġmar",
        "ried"
      ],
      [
        "Ġknow",
        "s"
      ],
      [
        "Ġqu",
        "ar"
      ],
      [
        "Ġdes",
        "ire"
      ],
      [
        "pr",
        "ay"
      ],
      [
        "Ġgr",
        "ant"
      ],
      [
        "Ġthought",
        "s"
      ],
      [
        "Ġchar",
        "ge"
      ],
      [
        "Ġconf",
        "ess"
      ],
      [
        "Ġty",
        "balt"
      ],
      [
        "b",
        "s"
      ],
      [
        "b",
        "ow"
      ],
      [
        "l",
        "s"
      ],
      [
        "o",
        "ve"
      ],
      [
        "u",
        "a"
      ],
      [
        "w",
        "er"
      ],
      [
        "Ġs",
        "aint"
      ],
      [
        "Ġm",
        "orn"
      ],
      [
        "Ġm",
        "ontague"
      ],
      [
        "Ġb",
        "on"
      ],
      [
        "Ġt",
        "a"
      ],
      [
        "Ġt",
        "en"
      ],
      [
        "Ġbe",
        "hold"
      ],
      [
        "se",
        "e"
      ],
      [
        "se",
        "bastian"
      ],
      [
        "ri",
        "age"
      ],
      [
        "Ġst",
        "ren"
      ],
      [
        "Ġv",
        "en"
      ],
      [
        "Ġre",
        "d"
      ],
      [
        "Ġre",
        "ad"
      ],
      [
        "Ġsp",
        "eed"
      ],
      [
        "Ġwor",
        "th"
      ],
      [
        "Ġpro",
        "f"
      ],
      [
        "Ġstand",
        "s"
      ],
      [
        "Ġtw",
        "enty"
      ],
      [
        "Ġhour",
        "s"
      ],
      [
        "Ġhal",
        "f"
      ],
      [
        "b",
        "iondello"
      ],
      [
        "g",
        "es"
      ],
      [
        "h",
        "ap"
      ],
      [
        "m",
        "ir"
      ],
      [
        "t",
        "ill"
      ],
      [
        "x",
        "ford"
      ],
      [
        "Ġf",
        "ur"
      ],
      [
        "Ġf",
        "ield"
      ],
      [
        "Ġd",
        "ish"
      ],
      [
        "Ġd",
        "iv"
      ],
      [
        "Ġyou",
        "th"
      ],
      [
        "Ġhe",
        "ll"
      ],
      [
        "al",
        "o"
      ],
      [
        "il",
        "es"
      ],
      [
        "fe",
        "ction"
      ],
      [
        "Ġpo",
        "st"
      ],
      [
        "Ġhast",
        "ings"
      ],
      [
        "Ġex",
        "ec"
      ],
      [
        "Ġdes",
        "p"
      ],
      [
        "aw",
        "ay"
      ],
      [
        "Ġfear",
        "ful"
      ],
      [
        "Ġcoun",
        "sel"
      ],
      [
        "b",
        "es"
      ],
      [
        "d",
        "le"
      ],
      [
        "h",
        "ear"
      ],
      [
        "m",
        "ad"
      ],
      [
        "Ġw",
        "retch"
      ],
      [
        "Ġb",
        "uckingham"
      ],
      [
        "Ġt",
        "er"
      ],
      [
        "ar",
        "s"
      ],
      [
        "Ġf",
        "ea"
      ],
      [
        "Ġc",
        "lo"
      ],
      [
        "re",
        "m"
      ],
      [
        "ri",
        "ght"
      ],
      [
        "Ġbo",
        "som"
      ],
      [
        "Ġmar",
        "riage"
      ],
      [
        "Ġpl",
        "ain"
      ],
      [
        "ort",
        "al"
      ],
      [
        "Ġheart",
        "s"
      ],
      [
        "Ġcl",
        "audio"
      ],
      [
        "Ġres",
        "ol"
      ],
      [
        "Ġea",
        "ch"
      ],
      [
        "Ġgu",
        "il"
      ],
      [
        "ser",
        "v"
      ],
      [
        "b",
        "ury"
      ],
      [
        "c",
        "re"
      ],
      [
        "d",
        "one"
      ],
      [
        "e",
        "x"
      ],
      [
        "f",
        "arewell"
      ],
      [
        "i",
        "x"
      ],
      [
        "s",
        "es"
      ],
      [
        "z",
        "alo"
      ],
      [
        "Ġ",
        "ve"
      ],
      [
        "Ġb",
        "it"
      ],
      [
        "Ġb",
        "ound"
      ],
      [
        "Ġb",
        "urn"
      ],
      [
        "Ġt",
        "ale"
      ],
      [
        "Ġc",
        "ut"
      ],
      [
        "Ġl",
        "ad"
      ],
      [
        "Ġd",
        "am"
      ],
      [
        "Ġd",
        "raw"
      ],
      [
        "re",
        "ady"
      ],
      [
        "ea",
        "d"
      ],
      [
        "ro",
        "th"
      ],
      [
        "ra",
        "h"
      ],
      [
        "Ġv",
        "ol"
      ],
      [
        "ion",
        "s"
      ],
      [
        "ant",
        "onio"
      ],
      [
        "oun",
        "t"
      ],
      [
        "Ġat",
        "tend"
      ],
      [
        "Ġmo",
        "ck"
      ],
      [
        "Ġknow",
        "n"
      ],
      [
        "be",
        "ing"
      ],
      [
        "cl",
        "audio"
      ],
      [
        "Ġhon",
        "est"
      ],
      [
        "Ġser",
        "ve"
      ],
      [
        "Ġfl",
        "atter"
      ],
      [
        "Ġgl",
        "oucester"
      ],
      [
        "Ġcomp",
        "any"
      ],
      [
        "Ġhigh",
        "ness"
      ],
      [
        "Ġhar",
        "m"
      ],
      [
        "Ġstri",
        "ke"
      ],
      [
        "Ġop",
        "en"
      ],
      [
        "Ġlew",
        "is"
      ],
      [
        "mad",
        "am"
      ],
      [
        "b",
        "ly"
      ],
      [
        "c",
        "all"
      ],
      [
        "c",
        "lifford"
      ],
      [
        "s",
        "c"
      ],
      [
        "Ġs",
        "at"
      ],
      [
        "Ġs",
        "ide"
      ],
      [
        "Ġw",
        "ed"
      ],
      [
        "Ġw",
        "onder"
      ],
      [
        "or",
        "ge"
      ],
      [
        "Ġf",
        "our"
      ],
      [
        "Ġbe",
        "h"
      ],
      [
        "Ġsh",
        "ort"
      ],
      [
        "al",
        "m"
      ],
      [
        "un",
        "der"
      ],
      [
        "Ġlo",
        "ving"
      ],
      [
        "wi",
        "xt"
      ],
      [
        "we",
        "en"
      ],
      [
        "Ġwor",
        "k"
      ],
      [
        "Ġpo",
        "int"
      ],
      [
        "Ġsome",
        "thing"
      ],
      [
        "Ġgentle",
        "men"
      ],
      [
        "her",
        "mione"
      ],
      [
        "Ġheaven",
        "s"
      ],
      [
        "mar",
        "ry"
      ],
      [
        "Ġvo",
        "ices"
      ],
      [
        "Ġdeli",
        "ver"
      ],
      [
        "Ġstren",
        "gth"
      ],
      [
        "p",
        "ed"
      ],
      [
        "r",
        "ing"
      ],
      [
        "z",
        "e"
      ],
      [
        "Ġa",
        "ct"
      ],
      [
        "Ġs",
        "ake"
      ],
      [
        "Ġw",
        "ast"
      ],
      [
        "Ġc",
        "ast"
      ],
      [
        "Ġl",
        "anc"
      ],
      [
        "Ġn",
        "ay"
      ],
      [
        "ir",
        "g"
      ],
      [
        "Ġst",
        "ir"
      ],
      [
        "Ġne",
        "xt"
      ],
      [
        "Ġen",
        "em"
      ],
      [
        "Ġdid",
        "st"
      ],
      [
        "Ġcl",
        "oud"
      ],
      [
        "Ġple",
        "as"
      ],
      [
        "Ġwom",
        "en"
      ],
      [
        "Ġent",
        "er"
      ],
      [
        "Ġche",
        "er"
      ],
      [
        "gon",
        "zalo"
      ],
      [
        "Ġwid",
        "ow"
      ],
      [
        "Ġlanc",
        "aster"
      ],
      [
        "Ġenem",
        "ies"
      ],
      [
        "b",
        "ear"
      ],
      [
        "c",
        "atesby"
      ],
      [
        "i",
        "ers"
      ],
      [
        "m",
        "ake"
      ],
      [
        "th",
        "us"
      ],
      [
        "Ġa",
        "c"
      ],
      [
        "Ġs",
        "ing"
      ],
      [
        "Ġs",
        "om"
      ],
      [
        "at",
        "ed"
      ],
      [
        "Ġc",
        "amillo"
      ],
      [
        "Ġd",
        "are"
      ],
      [
        "Ġp",
        "ra"
      ],
      [
        "Ġp",
        "ie"
      ],
      [
        "Ġp",
        "ale"
      ],
      [
        "Ġto",
        "wer"
      ],
      [
        "Ġg",
        "ar"
      ],
      [
        "Ġg",
        "ates"
      ],
      [
        "and",
        "a"
      ],
      [
        "ay",
        "s"
      ],
      [
        "it",
        "a"
      ],
      [
        "oo",
        "se"
      ],
      [
        "Ġwith",
        "al"
      ],
      [
        "Ġch",
        "ange"
      ],
      [
        "Ġun",
        "t"
      ],
      [
        "il",
        "s"
      ],
      [
        "Ġcom",
        "ing"
      ],
      [
        "Ġsee",
        "k"
      ],
      [
        "Ġthan",
        "ks"
      ],
      [
        "Ġpl",
        "ant"
      ],
      [
        "Ġlea",
        "d"
      ],
      [
        "po",
        "sed"
      ],
      [
        "Ġple",
        "asure"
      ],
      [
        "Ġsoul",
        "s"
      ],
      [
        "Ġtri",
        "b"
      ],
      [
        "Ġcour",
        "se"
      ],
      [
        "Ġbra",
        "ve"
      ],
      [
        "ceive",
        "d"
      ],
      [
        "Ġkne",
        "w"
      ],
      [
        "Ġsuff",
        "er"
      ],
      [
        "Ġtit",
        "le"
      ],
      [
        "Ġord",
        "er"
      ],
      [
        "k",
        "es"
      ],
      [
        "s",
        "uch"
      ],
      [
        "t",
        "was"
      ],
      [
        "Ġs",
        "el"
      ],
      [
        "Ġm",
        "ow"
      ],
      [
        "Ġw",
        "eak"
      ],
      [
        "Ġw",
        "rit"
      ],
      [
        "Ġb",
        "ur"
      ],
      [
        "Ġg",
        "e"
      ],
      [
        "Ġbe",
        "come"
      ],
      [
        "et",
        "s"
      ],
      [
        "et",
        "ch"
      ],
      [
        "Ġe",
        "ither"
      ],
      [
        "un",
        "k"
      ],
      [
        "all",
        "y"
      ],
      [
        "Ġli",
        "ps"
      ],
      [
        "Ġch",
        "ee"
      ],
      [
        "Ġj",
        "est"
      ],
      [
        "cl",
        "aim"
      ],
      [
        "Ġoff",
        "ic"
      ],
      [
        "Ġdis",
        "p"
      ],
      [
        "Ġab",
        "s"
      ],
      [
        "Ġnor",
        "folk"
      ],
      [
        "Ġcons",
        "ul"
      ],
      [
        "Ġgri",
        "e"
      ],
      [
        "sp",
        "eak"
      ],
      [
        "c",
        "ur"
      ],
      [
        "c",
        "oun"
      ],
      [
        "g",
        "ra"
      ],
      [
        "h",
        "ood"
      ],
      [
        "o",
        "s"
      ],
      [
        "s",
        "ince"
      ],
      [
        "t",
        "ru"
      ],
      [
        "t",
        "were"
      ],
      [
        "Ġs",
        "k"
      ],
      [
        "Ġs",
        "ame"
      ],
      [
        "Ġs",
        "ick"
      ],
      [
        "Ġw",
        "all"
      ],
      [
        "Ġb",
        "ad"
      ],
      [
        "Ġb",
        "ianca"
      ],
      [
        "at",
        "s"
      ],
      [
        "Ġan",
        "c"
      ],
      [
        "and",
        "er"
      ],
      [
        "ir",
        "th"
      ],
      [
        "ri",
        "es"
      ],
      [
        "Ġis",
        "sue"
      ],
      [
        "Ġfor",
        "get"
      ],
      [
        "oo",
        "f"
      ],
      [
        "Ġe",
        "v"
      ],
      [
        "Ġch",
        "am"
      ],
      [
        "il",
        "st"
      ],
      [
        "Ġthem",
        "selves"
      ],
      [
        "Ġwor",
        "se"
      ],
      [
        "Ġpo",
        "ison"
      ],
      [
        "be",
        "fore"
      ],
      [
        "Ġtoo",
        "k"
      ],
      [
        "ian",
        "s"
      ],
      [
        "Ġal",
        "ong"
      ],
      [
        "Ġbre",
        "ast"
      ],
      [
        "Ġpre",
        "t"
      ],
      [
        "Ġrem",
        "ain"
      ],
      [
        "Ġpat",
        "ience"
      ],
      [
        "Ġmer",
        "ry"
      ],
      [
        "mir",
        "anda"
      ],
      [
        "serv",
        "ant"
      ],
      [
        "d",
        "ing"
      ],
      [
        "d",
        "ita"
      ],
      [
        "g",
        "entle"
      ],
      [
        "k",
        "now"
      ],
      [
        "m",
        "it"
      ],
      [
        "m",
        "essenger"
      ],
      [
        "s",
        "a"
      ],
      [
        "v",
        "our"
      ],
      [
        "Ġth",
        "ri"
      ],
      [
        "Ġm",
        "outh"
      ],
      [
        "Ġw",
        "ise"
      ],
      [
        "Ġb",
        "ook"
      ],
      [
        "an",
        "ley"
      ],
      [
        "Ġc",
        "urse"
      ],
      [
        "Ġd",
        "u"
      ],
      [
        "Ġp",
        "h"
      ],
      [
        "Ġg",
        "ave"
      ],
      [
        "om",
        "as"
      ],
      [
        "Ġin",
        "ter"
      ],
      [
        "us",
        "ed"
      ],
      [
        "Ġli",
        "ber"
      ],
      [
        "Ġmo",
        "ve"
      ],
      [
        "row",
        "s"
      ],
      [
        "Ġbl",
        "ack"
      ],
      [
        "Ġhere",
        "ford"
      ],
      [
        "Ġwor",
        "ship"
      ],
      [
        "Ġoff",
        "ice"
      ],
      [
        "Ġal",
        "ready"
      ],
      [
        "Ġse",
        "c"
      ],
      [
        "br",
        "ay"
      ],
      [
        "Ġapp",
        "ear"
      ],
      [
        "Ġsold",
        "ier"
      ],
      [
        "Ġsign",
        "ior"
      ],
      [
        "Ġvirt",
        "ue"
      ],
      [
        "Ġgi",
        "ven"
      ],
      [
        "Ġbat",
        "tle"
      ],
      [
        "af",
        "ter"
      ],
      [
        "Ġmorn",
        "ing"
      ],
      [
        "Ġfur",
        "ther"
      ],
      [
        "Ġsel",
        "f"
      ],
      [
        "d",
        "es"
      ],
      [
        "f",
        "ull"
      ],
      [
        "g",
        "ry"
      ],
      [
        "m",
        "b"
      ],
      [
        "m",
        "ust"
      ],
      [
        "m",
        "aster"
      ],
      [
        "o",
        "ck"
      ],
      [
        "er",
        "t"
      ],
      [
        "Ġg",
        "ro"
      ],
      [
        "al",
        "th"
      ],
      [
        "al",
        "as"
      ],
      [
        "un",
        "less"
      ],
      [
        "Ġst",
        "op"
      ],
      [
        "Ġv",
        "er"
      ],
      [
        "Ġso",
        "ft"
      ],
      [
        "Ġsp",
        "eech"
      ],
      [
        "Ġgo",
        "es"
      ],
      [
        "Ġfr",
        "own"
      ],
      [
        "Ġsu",
        "cc"
      ],
      [
        "ie",
        "f"
      ],
      [
        "Ġus",
        "ur"
      ],
      [
        "be",
        "cause"
      ],
      [
        "Ġson",
        "s"
      ],
      [
        "ian",
        "a"
      ],
      [
        "Ġex",
        "t"
      ],
      [
        "Ġsw",
        "orn"
      ],
      [
        "po",
        "s"
      ],
      [
        "Ġbet",
        "ween"
      ],
      [
        "Ġfo",
        "e"
      ],
      [
        "com",
        "es"
      ],
      [
        "Ġbeg",
        "in"
      ],
      [
        "Ġcons",
        "ent"
      ],
      [
        "Ġtr",
        "ou"
      ],
      [
        "Ġsold",
        "iers"
      ],
      [
        "dd",
        "en"
      ],
      [
        "Ġrequ",
        "est"
      ],
      [
        "Ġlu",
        "centio"
      ],
      [
        "Ġquar",
        "rel"
      ],
      [
        "Ġfea",
        "st"
      ],
      [
        "Ġsat",
        "is"
      ],
      [
        "Ġtrib",
        "unes"
      ],
      [
        "Ġmow",
        "bray"
      ],
      [
        "b",
        "ed"
      ],
      [
        "b",
        "ianca"
      ],
      [
        "d",
        "is"
      ],
      [
        "Ġth",
        "ence"
      ],
      [
        "Ġw",
        "ater"
      ],
      [
        "Ġb",
        "en"
      ],
      [
        "on",
        "s"
      ],
      [
        "ll",
        "y"
      ],
      [
        "Ġc",
        "r"
      ],
      [
        "Ġc",
        "le"
      ],
      [
        "Ġd",
        "ro"
      ],
      [
        "Ġd",
        "ire"
      ],
      [
        "Ġd",
        "ark"
      ],
      [
        "ow",
        "ers"
      ],
      [
        "Ġin",
        "f"
      ],
      [
        "ir",
        "es"
      ],
      [
        "oo",
        "l"
      ],
      [
        "wh",
        "om"
      ],
      [
        "ur",
        "ch"
      ],
      [
        "the",
        "ir"
      ],
      [
        "li",
        "ght"
      ],
      [
        "Ġre",
        "g"
      ],
      [
        "end",
        "s"
      ],
      [
        "Ġlo",
        "ves"
      ],
      [
        "Ġsu",
        "m"
      ],
      [
        "ie",
        "l"
      ],
      [
        "em",
        "pt"
      ],
      [
        "Ġcl",
        "ose"
      ],
      [
        "Ġpri",
        "v"
      ],
      [
        "Ġvi",
        "ct"
      ],
      [
        "Ġpres",
        "ence"
      ],
      [
        "Ġdre",
        "ad"
      ],
      [
        "bo",
        "th"
      ],
      [
        "jo",
        "hn"
      ],
      [
        "Ġau",
        "fidius"
      ],
      [
        "Ġwound",
        "s"
      ],
      [
        "Ġdang",
        "erous"
      ],
      [
        "Ġvis",
        "it"
      ],
      [
        "Ġbit",
        "ter"
      ],
      [
        "g",
        "u"
      ],
      [
        "i",
        "ant"
      ],
      [
        "l",
        "est"
      ],
      [
        "l",
        "ong"
      ],
      [
        "m",
        "istress"
      ],
      [
        "r",
        "at"
      ],
      [
        "u",
        "ous"
      ],
      [
        "y",
        "es"
      ],
      [
        "Ġs",
        "igh"
      ],
      [
        "er",
        "n"
      ],
      [
        "Ġw",
        "is"
      ],
      [
        "Ġb",
        "ow"
      ],
      [
        "Ġb",
        "aw"
      ],
      [
        "on",
        "our"
      ],
      [
        "Ġf",
        "eel"
      ],
      [
        "Ġc",
        "ase"
      ],
      [
        "Ġl",
        "ond"
      ],
      [
        "Ġd",
        "ar"
      ],
      [
        "Ġp",
        "en"
      ],
      [
        "Ġha",
        "ving"
      ],
      [
        "ir",
        "m"
      ],
      [
        "ri",
        "vers"
      ],
      [
        "end",
        "ed"
      ],
      [
        "Ġgo",
        "t"
      ],
      [
        "Ġch",
        "r"
      ],
      [
        "Ġne",
        "ither"
      ],
      [
        "no",
        "ck"
      ],
      [
        "Ġking",
        "s"
      ],
      [
        "au",
        "gh"
      ],
      [
        "Ġmar",
        "ch"
      ],
      [
        "be",
        "y"
      ],
      [
        "of",
        "f"
      ],
      [
        "Ġwar",
        "s"
      ],
      [
        "Ġho",
        "t"
      ],
      [
        "Ġpri",
        "thee"
      ],
      [
        "Ġmight",
        "y"
      ],
      [
        "Ġres",
        "pect"
      ],
      [
        "Ġbri",
        "de"
      ],
      [
        "Ġbri",
        "ef"
      ],
      [
        "Ġthr",
        "one"
      ],
      [
        "Ġvo",
        "ice"
      ],
      [
        "Ġden",
        "y"
      ],
      [
        "Ġspo",
        "ke"
      ],
      [
        "Ġposs",
        "ess"
      ],
      [
        "Ġlond",
        "on"
      ],
      [
        "m",
        "pet"
      ],
      [
        "o",
        "ver"
      ],
      [
        "Ġ",
        "est"
      ],
      [
        "er",
        "set"
      ],
      [
        "Ġh",
        "ur"
      ],
      [
        "Ġm",
        "al"
      ],
      [
        "Ġm",
        "ortal"
      ],
      [
        "Ġb",
        "le"
      ],
      [
        "Ġb",
        "ab"
      ],
      [
        "Ġc",
        "ross"
      ],
      [
        "Ġp",
        "u"
      ],
      [
        "Ġto",
        "wn"
      ],
      [
        "re",
        "ad"
      ],
      [
        "Ġg",
        "all"
      ],
      [
        "Ġof",
        "ten"
      ],
      [
        "ea",
        "th"
      ],
      [
        "Ġst",
        "u"
      ],
      [
        "id",
        "ed"
      ],
      [
        "Ġv",
        "ow"
      ],
      [
        "li",
        "ve"
      ],
      [
        "ver",
        "n"
      ],
      [
        "ee",
        "m"
      ],
      [
        "Ġpr",
        "in"
      ],
      [
        "Ġsu",
        "dden"
      ],
      [
        "art",
        "ius"
      ],
      [
        "Ġwas",
        "h"
      ],
      [
        "ish",
        "op"
      ],
      [
        "Ġlove",
        "d"
      ],
      [
        "Ġsee",
        "ms"
      ],
      [
        "Ġrich",
        "mond"
      ],
      [
        "Ġpro",
        "t"
      ],
      [
        "Ġsa",
        "fe"
      ],
      [
        "ak",
        "en"
      ],
      [
        "ire",
        "d"
      ],
      [
        "ty",
        "balt"
      ],
      [
        "Ġjo",
        "in"
      ],
      [
        "Ġprince",
        "ly"
      ],
      [
        "Ġpar",
        "is"
      ],
      [
        "Ġbu",
        "y"
      ],
      [
        "Ġdeed",
        "s"
      ],
      [
        "Ġprom",
        "ise"
      ],
      [
        "Ġval",
        "iant"
      ],
      [
        "Ġge",
        "orge"
      ],
      [
        "Ġanc",
        "ient"
      ],
      [
        "Ġcham",
        "ber"
      ],
      [
        "a",
        "the"
      ],
      [
        "c",
        "liff"
      ],
      [
        "e",
        "ver"
      ],
      [
        "m",
        "and"
      ],
      [
        "p",
        "ardon"
      ],
      [
        "Ġm",
        "ist"
      ],
      [
        "Ġb",
        "aptista"
      ],
      [
        "an",
        "s"
      ],
      [
        "Ġf",
        "etch"
      ],
      [
        "Ġc",
        "oward"
      ],
      [
        "Ġl",
        "im"
      ],
      [
        "Ġd",
        "ra"
      ],
      [
        "Ġp",
        "ay"
      ],
      [
        "Ġfor",
        "ward"
      ],
      [
        "id",
        "er"
      ],
      [
        "Ġr",
        "oman"
      ],
      [
        "ant",
        "age"
      ],
      [
        "one",
        "y"
      ],
      [
        "Ġmo",
        "on"
      ],
      [
        "Ġking",
        "dom"
      ],
      [
        "we",
        "lcome"
      ],
      [
        "um",
        "ph"
      ],
      [
        "em",
        "n"
      ],
      [
        "Ġsa",
        "c"
      ],
      [
        "Ġoff",
        "er"
      ],
      [
        "el",
        "bow"
      ],
      [
        "Ġra",
        "ge"
      ],
      [
        "Ġsc",
        "ar"
      ],
      [
        "Ġsc",
        "orn"
      ],
      [
        "Ġhead",
        "s"
      ],
      [
        "Ġbeg",
        "gar"
      ],
      [
        "Ġpat",
        "ient"
      ],
      [
        "jo",
        "y"
      ],
      [
        "Ġwit",
        "ness"
      ],
      [
        "Ġlam",
        "ent"
      ],
      [
        "Ġsucc",
        "ess"
      ],
      [
        "e",
        "ther"
      ],
      [
        "i",
        "est"
      ],
      [
        "m",
        "ine"
      ],
      [
        "m",
        "ontague"
      ],
      [
        "Ġth",
        "row"
      ],
      [
        "Ġa",
        "ction"
      ],
      [
        "Ġi",
        "g"
      ],
      [
        "Ġt",
        "ranio"
      ],
      [
        "Ġf",
        "i"
      ],
      [
        "Ġc",
        "ol"
      ],
      [
        "Ġl",
        "ack"
      ],
      [
        "Ġd",
        "est"
      ],
      [
        "Ġd",
        "ru"
      ],
      [
        "Ġd",
        "ist"
      ],
      [
        "Ġo",
        "pp"
      ],
      [
        "Ġp",
        "it"
      ],
      [
        "Ġan",
        "t"
      ],
      [
        "ve",
        "l"
      ],
      [
        "Ġin",
        "t"
      ],
      [
        "oo",
        "th"
      ],
      [
        "Ġk",
        "ins"
      ],
      [
        "Ġe",
        "at"
      ],
      [
        "ur",
        "es"
      ],
      [
        "Ġv",
        "iol"
      ],
      [
        "ru",
        "st"
      ],
      [
        "Ġat",
        "t"
      ],
      [
        "he",
        "m"
      ],
      [
        "Ġpro",
        "ceed"
      ],
      [
        "Ġlea",
        "st"
      ],
      [
        "Ġfl",
        "esh"
      ],
      [
        "Ġpray",
        "ers"
      ],
      [
        "Ġsl",
        "ave"
      ],
      [
        "Ġapp",
        "ro"
      ],
      [
        "Ġtri",
        "umph"
      ],
      [
        "bl",
        "es"
      ],
      [
        "Ġem",
        "p"
      ],
      [
        "Ġpet",
        "ruchio"
      ],
      [
        "j",
        "ust"
      ],
      [
        "v",
        "est"
      ],
      [
        "y",
        "ea"
      ],
      [
        "Ġth",
        "ither"
      ],
      [
        "Ġh",
        "ide"
      ],
      [
        "in",
        "es"
      ],
      [
        "Ġm",
        "id"
      ],
      [
        "Ġb",
        "ase"
      ],
      [
        "Ġt",
        "or"
      ],
      [
        "Ġf",
        "ie"
      ],
      [
        "Ġc",
        "ertain"
      ],
      [
        "ed",
        "s"
      ],
      [
        "Ġbe",
        "ast"
      ],
      [
        "ur",
        "al"
      ],
      [
        "for",
        "ce"
      ],
      [
        "fe",
        "it"
      ],
      [
        "um",
        "b"
      ],
      [
        "ak",
        "ed"
      ],
      [
        "Ġal",
        "most"
      ],
      [
        "Ġsm",
        "all"
      ],
      [
        "Ġpresent",
        "ly"
      ],
      [
        "Ġfaul",
        "ts"
      ],
      [
        "Ġdep",
        "art"
      ],
      [
        "Ġsubject",
        "s"
      ],
      [
        "irg",
        "ilia"
      ],
      [
        "Ġoffic",
        "er"
      ],
      [
        "Ġsatis",
        "f"
      ],
      [
        "a",
        "c"
      ],
      [
        "a",
        "z"
      ],
      [
        "a",
        "id"
      ],
      [
        "g",
        "g"
      ],
      [
        "g",
        "ue"
      ],
      [
        "m",
        "on"
      ],
      [
        "m",
        "ade"
      ],
      [
        "p",
        "eace"
      ],
      [
        "s",
        "ly"
      ],
      [
        "s",
        "weet"
      ],
      [
        "t",
        "oo"
      ],
      [
        "v",
        "irgilia"
      ],
      [
        "Ġa",
        "y"
      ],
      [
        "in",
        "ted"
      ],
      [
        "Ġm",
        "ild"
      ],
      [
        "Ġm",
        "atch"
      ],
      [
        "Ġw",
        "ert"
      ],
      [
        "Ġb",
        "irth"
      ],
      [
        "an",
        "k"
      ],
      [
        "Ġt",
        "ear"
      ],
      [
        "on",
        "us"
      ],
      [
        "Ġf",
        "ill"
      ],
      [
        "Ġf",
        "ond"
      ],
      [
        "Ġc",
        "al"
      ],
      [
        "Ġc",
        "oriolanus"
      ],
      [
        "Ġc",
        "reat"
      ],
      [
        "Ġl",
        "ab"
      ],
      [
        "ing",
        "er"
      ],
      [
        "Ġwh",
        "ence"
      ],
      [
        "Ġme",
        "asure"
      ],
      [
        "Ġfor",
        "m"
      ],
      [
        "Ġst",
        "ru"
      ],
      [
        "am",
        "ed"
      ],
      [
        "Ġli",
        "ving"
      ],
      [
        "Ġch",
        "ance"
      ],
      [
        "Ġch",
        "ang"
      ],
      [
        "Ġch",
        "urch"
      ],
      [
        "ast",
        "ers"
      ],
      [
        "Ġfr",
        "esh"
      ],
      [
        "Ġgood",
        "ly"
      ],
      [
        "ig",
        "onus"
      ],
      [
        "Ġtru",
        "mpet"
      ],
      [
        "Ġhad",
        "st"
      ],
      [
        "per",
        "ate"
      ],
      [
        "per",
        "dita"
      ],
      [
        "Ġhear",
        "ing"
      ],
      [
        "Ġear",
        "l"
      ],
      [
        "Ġper",
        "form"
      ],
      [
        "Ġsl",
        "aughter"
      ],
      [
        "Ġkn",
        "ee"
      ],
      [
        "Ġea",
        "s"
      ],
      [
        "led",
        "ge"
      ],
      [
        "Ġdr",
        "ink"
      ],
      [
        "Ġvirt",
        "uous"
      ],
      [
        "Ġdef",
        "end"
      ],
      [
        "Ġquick",
        "ly"
      ],
      [
        "Ġguil",
        "ty"
      ],
      [
        "Ġdam",
        "n"
      ],
      [
        "full",
        "y"
      ],
      [
        "Ġbaw",
        "d"
      ],
      [
        "hem",
        "ia"
      ],
      [
        "g",
        "i"
      ],
      [
        "l",
        "ay"
      ],
      [
        "n",
        "ard"
      ],
      [
        "p",
        "ri"
      ],
      [
        "r",
        "or"
      ],
      [
        "r",
        "es"
      ],
      [
        "r",
        "est"
      ],
      [
        "s",
        "on"
      ],
      [
        "v",
        "al"
      ],
      [
        "Ġ",
        "ut"
      ],
      [
        "Ġa",
        "while"
      ],
      [
        "Ġs",
        "wi"
      ],
      [
        "Ġm",
        "ed"
      ],
      [
        "Ġw",
        "ea"
      ],
      [
        "en",
        "ess"
      ],
      [
        "is",
        "ure"
      ],
      [
        "Ġo",
        "xford"
      ],
      [
        "Ġp",
        "ompey"
      ],
      [
        "Ġan",
        "gry"
      ],
      [
        "Ġwi",
        "ld"
      ],
      [
        "Ġin",
        "s"
      ],
      [
        "Ġin",
        "no"
      ],
      [
        "ut",
        "land"
      ],
      [
        "it",
        "ies"
      ],
      [
        "Ġe",
        "f"
      ],
      [
        "Ġst",
        "or"
      ],
      [
        "am",
        "es"
      ],
      [
        "am",
        "ent"
      ],
      [
        "am",
        "ps"
      ],
      [
        "li",
        "c"
      ],
      [
        "Ġre",
        "ver"
      ],
      [
        "il",
        "ed"
      ],
      [
        "ab",
        "el"
      ],
      [
        "ust",
        "om"
      ],
      [
        "Ġbl",
        "ow"
      ],
      [
        "Ġbl",
        "ows"
      ],
      [
        "Ġmay",
        "or"
      ],
      [
        "Ġqu",
        "iet"
      ],
      [
        "Ġpro",
        "sper"
      ],
      [
        "Ġoff",
        "ence"
      ],
      [
        "pr",
        "ess"
      ],
      [
        "mar",
        "iana"
      ],
      [
        "Ġaf",
        "fection"
      ],
      [
        "Ġkeep",
        "er"
      ],
      [
        "do",
        "th"
      ],
      [
        "Ġgl",
        "ad"
      ],
      [
        "Ġsle",
        "w"
      ],
      [
        "Ġlaw",
        "ful"
      ],
      [
        "Ġweep",
        "ing"
      ],
      [
        "Ġdeser",
        "ved"
      ],
      [
        "hap",
        "p"
      ],
      [
        "Ġexec",
        "ution"
      ],
      [
        "Ġlad",
        "ies"
      ],
      [
        "Ġpret",
        "ty"
      ],
      [
        "Ġusur",
        "p"
      ],
      [
        "c",
        "ould"
      ],
      [
        "d",
        "en"
      ],
      [
        "d",
        "raw"
      ],
      [
        "f",
        "all"
      ],
      [
        "g",
        "le"
      ],
      [
        "h",
        "im"
      ],
      [
        "k",
        "ed"
      ],
      [
        "p",
        "are"
      ],
      [
        "r",
        "ous"
      ],
      [
        "u",
        "al"
      ],
      [
        "v",
        "incentio"
      ],
      [
        "w",
        "o"
      ],
      [
        "w",
        "or"
      ],
      [
        "z",
        "en"
      ],
      [
        "th",
        "or"
      ],
      [
        "Ġs",
        "us"
      ],
      [
        "ar",
        "iel"
      ],
      [
        "Ġy",
        "ear"
      ],
      [
        "Ġo",
        "cc"
      ],
      [
        "Ġp",
        "al"
      ],
      [
        "st",
        "er"
      ],
      [
        "st",
        "ay"
      ],
      [
        "and",
        "s"
      ],
      [
        "Ġha",
        "p"
      ],
      [
        "ri",
        "c"
      ],
      [
        "Ġsh",
        "ad"
      ],
      [
        "Ġis",
        "abel"
      ],
      [
        "Ġfor",
        "sw"
      ],
      [
        "Ġfor",
        "bid"
      ],
      [
        "Ġnot",
        "e"
      ],
      [
        "Ġk",
        "atharina"
      ],
      [
        "Ġk",
        "nock"
      ],
      [
        "ad",
        "ua"
      ],
      [
        "un",
        "to"
      ],
      [
        "Ġst",
        "re"
      ],
      [
        "Ġst",
        "ain"
      ],
      [
        "ard",
        "s"
      ],
      [
        "Ġdo",
        "om"
      ],
      [
        "Ġre",
        "ign"
      ],
      [
        "ru",
        "pt"
      ],
      [
        "Ġr",
        "ough"
      ],
      [
        "Ġour",
        "selves"
      ],
      [
        "ast",
        "e"
      ],
      [
        "Ġne",
        "ck"
      ],
      [
        "we",
        "l"
      ],
      [
        "Ġwould",
        "st"
      ],
      [
        "Ġlet",
        "ters"
      ],
      [
        "Ġwor",
        "st"
      ],
      [
        "Ġspeak",
        "s"
      ],
      [
        "ag",
        "en"
      ],
      [
        "iz",
        "e"
      ],
      [
        "Ġfl",
        "ed"
      ],
      [
        "igh",
        "b"
      ],
      [
        "Ġgreat",
        "er"
      ],
      [
        "Ġle",
        "isure"
      ],
      [
        "Ġshow",
        "s"
      ],
      [
        "Ġcitiz",
        "ens"
      ],
      [
        "Ġkn",
        "eel"
      ],
      [
        "Ġsen",
        "se"
      ],
      [
        "Ġtre",
        "ason"
      ],
      [
        "Ġbanish",
        "ment"
      ],
      [
        "Ġengl",
        "ish"
      ],
      [
        "par",
        "is"
      ],
      [
        "Ġcond",
        "emn"
      ],
      [
        "Ġdish",
        "onour"
      ],
      [
        "Ġcloud",
        "s"
      ],
      [
        "coun",
        "ter"
      ],
      [
        "Ġliber",
        "ty"
      ],
      [
        "Ġchr",
        "ist"
      ],
      [
        ":",
        "'"
      ],
      [
        "a",
        "ff"
      ],
      [
        "a",
        "wn"
      ],
      [
        "a",
        "cle"
      ],
      [
        "b",
        "it"
      ],
      [
        "c",
        "ont"
      ],
      [
        "c",
        "itiz"
      ],
      [
        "c",
        "ience"
      ],
      [
        "d",
        "red"
      ],
      [
        "e",
        "ous"
      ],
      [
        "h",
        "ouse"
      ],
      [
        "k",
        "ind"
      ],
      [
        "p",
        "ut"
      ],
      [
        "p",
        "ort"
      ],
      [
        "p",
        "herd"
      ],
      [
        "r",
        "ay"
      ],
      [
        "Ġ",
        "x"
      ],
      [
        "Ġ",
        "ur"
      ],
      [
        "Ġs",
        "ort"
      ],
      [
        "Ġm",
        "orrow"
      ],
      [
        "Ġm",
        "essenger"
      ],
      [
        "Ġw",
        "r"
      ],
      [
        "Ġw",
        "on"
      ],
      [
        "Ġw",
        "alk"
      ],
      [
        "Ġt",
        "each"
      ],
      [
        "ar",
        "ge"
      ],
      [
        "Ġf",
        "ive"
      ],
      [
        "Ġc",
        "ru"
      ],
      [
        "Ġl",
        "ist"
      ],
      [
        "Ġd",
        "ry"
      ],
      [
        "Ġo",
        "dd"
      ],
      [
        "Ġo",
        "bey"
      ],
      [
        "ve",
        "y"
      ],
      [
        "Ġbe",
        "cause"
      ],
      [
        "Ġno",
        "ise"
      ],
      [
        "ch",
        "er"
      ],
      [
        "Ġin",
        "d"
      ],
      [
        "Ġhe",
        "ld"
      ],
      [
        "Ġsh",
        "ed"
      ],
      [
        "Ġme",
        "think"
      ],
      [
        "Ġst",
        "eel"
      ],
      [
        "Ġli",
        "ved"
      ],
      [
        "Ġv",
        "ain"
      ],
      [
        "Ġas",
        "ide"
      ],
      [
        "Ġdo",
        "g"
      ],
      [
        "Ġre",
        "c"
      ],
      [
        "Ġlo",
        "d"
      ],
      [
        "Ġch",
        "o"
      ],
      [
        "Ġch",
        "oose"
      ],
      [
        "Ġbo",
        "hemia"
      ],
      [
        "Ġcon",
        "qu"
      ],
      [
        "ap",
        "e"
      ],
      [
        "ol",
        "er"
      ],
      [
        "Ġshe",
        "pherd"
      ],
      [
        "Ġlet",
        "ter"
      ],
      [
        "ound",
        "s"
      ],
      [
        "Ġgre",
        "en"
      ],
      [
        "Ġab",
        "ove"
      ],
      [
        "Ġbre",
        "athe"
      ],
      [
        "Ġse",
        "at"
      ],
      [
        "Ġse",
        "cond"
      ],
      [
        "Ġjo",
        "hn"
      ],
      [
        "Ġlong",
        "er"
      ],
      [
        "Ġwom",
        "b"
      ],
      [
        "Ġneed",
        "s"
      ],
      [
        "Ġla",
        "id"
      ],
      [
        "Ġem",
        "bra"
      ],
      [
        "fa",
        "ith"
      ],
      [
        "Ġprison",
        "er"
      ],
      [
        "Ġgold",
        "en"
      ],
      [
        "Ġbeh",
        "ind"
      ],
      [
        "Ġpie",
        "ce"
      ],
      [
        "Ġdisp",
        "atch"
      ],
      [
        "Ġsec",
        "ret"
      ],
      [
        "pos",
        "ition"
      ],
      [
        "rat",
        "cliff"
      ],
      [
        "Ġig",
        "nor"
      ],
      [
        "nard",
        "ine"
      ],
      [
        "agen",
        "et"
      ],
      [
        "!",
        "--"
      ],
      [
        "'",
        "re"
      ],
      [
        "a",
        "ves"
      ],
      [
        "b",
        "ishop"
      ],
      [
        "g",
        "ing"
      ],
      [
        "h",
        "ark"
      ],
      [
        "i",
        "b"
      ],
      [
        "l",
        "artius"
      ],
      [
        "p",
        "re"
      ],
      [
        "s",
        "ign"
      ],
      [
        "Ġth",
        "reat"
      ],
      [
        "Ġs",
        "ch"
      ],
      [
        "Ġs",
        "im"
      ],
      [
        "Ġs",
        "our"
      ],
      [
        "Ġs",
        "li"
      ],
      [
        "Ġs",
        "eal"
      ],
      [
        "Ġh",
        "at"
      ],
      [
        "Ġh",
        "ortensio"
      ],
      [
        "Ġm",
        "ut"
      ],
      [
        "Ġm",
        "ant"
      ],
      [
        "Ġw",
        "ench"
      ],
      [
        "Ġb",
        "ig"
      ],
      [
        "ar",
        "ch"
      ],
      [
        "on",
        "a"
      ],
      [
        "Ġf",
        "at"
      ],
      [
        "Ġf",
        "am"
      ],
      [
        "Ġf",
        "ine"
      ],
      [
        "at",
        "ors"
      ],
      [
        "Ġl",
        "en"
      ],
      [
        "Ġl",
        "ow"
      ],
      [
        "Ġl",
        "ust"
      ],
      [
        "Ġd",
        "rown"
      ],
      [
        "Ġn",
        "ap"
      ],
      [
        "Ġp",
        "adua"
      ],
      [
        "ing",
        "ly"
      ],
      [
        "Ġof",
        "t"
      ],
      [
        "ch",
        "es"
      ],
      [
        "ce",
        "it"
      ],
      [
        "Ġfor",
        "got"
      ],
      [
        "as",
        "ion"
      ],
      [
        "ro",
        "y"
      ],
      [
        "Ġyour",
        "selves"
      ],
      [
        "Ġst",
        "ood"
      ],
      [
        "Ġst",
        "ep"
      ],
      [
        "ord",
        "s"
      ],
      [
        "ur",
        "s"
      ],
      [
        "Ġso",
        "le"
      ],
      [
        "li",
        "es"
      ],
      [
        "Ġfa",
        "vour"
      ],
      [
        "Ġlo",
        "ath"
      ],
      [
        "wi",
        "ce"
      ],
      [
        "ul",
        "ar"
      ],
      [
        "Ġmo",
        "d"
      ],
      [
        "ie",
        "u"
      ],
      [
        "um",
        "e"
      ],
      [
        "Ġqu",
        "o"
      ],
      [
        "Ġpro",
        "claim"
      ],
      [
        "lo",
        "ck"
      ],
      [
        "Ġgre",
        "mio"
      ],
      [
        "with",
        "in"
      ],
      [
        "thou",
        "ght"
      ],
      [
        "Ġbro",
        "ke"
      ],
      [
        "Ġnor",
        "thumberland"
      ],
      [
        "Ġdes",
        "perate"
      ],
      [
        "ne",
        "ver"
      ],
      [
        "Ġpre",
        "cious"
      ],
      [
        "Ġbear",
        "s"
      ],
      [
        "Ġpri",
        "de"
      ],
      [
        "Ġcons",
        "cience"
      ],
      [
        "Ġgl",
        "ory"
      ],
      [
        "Ġent",
        "ertain"
      ],
      [
        "Ġcomp",
        "l"
      ],
      [
        "sir",
        "rah"
      ],
      [
        "orse",
        "t"
      ],
      [
        "ush",
        "y"
      ],
      [
        "Ġland",
        "s"
      ],
      [
        "Ġwo",
        "es"
      ],
      [
        "Ġau",
        "thor"
      ],
      [
        "Ġdr",
        "unk"
      ],
      [
        "fa",
        "ther"
      ],
      [
        "Ġwatch",
        "man"
      ],
      [
        "Ġob",
        "ed"
      ],
      [
        "Ġkne",
        "es"
      ],
      [
        "Ġbless",
        "ed"
      ],
      [
        "Ġhun",
        "dred"
      ],
      [
        "Ġtoward",
        "s"
      ],
      [
        "Ġbon",
        "es"
      ],
      [
        "Ġven",
        "ge"
      ],
      [
        "Ġsom",
        "et"
      ],
      [
        "Ġvict",
        "ory"
      ],
      [
        "Ġwis",
        "dom"
      ],
      [
        "Ġkins",
        "man"
      ],
      [
        "Ġswi",
        "ft"
      ],
      [
        "Ġef",
        "fect"
      ],
      [
        "Ġx",
        "i"
      ],
      [
        "Ġmethink",
        "s"
      ],
      [
        ";",
        "'"
      ],
      [
        "a",
        "king"
      ],
      [
        "b",
        "b"
      ],
      [
        "b",
        "et"
      ],
      [
        "f",
        "ear"
      ],
      [
        "g",
        "ri"
      ],
      [
        "g",
        "ment"
      ],
      [
        "g",
        "ree"
      ],
      [
        "h",
        "ors"
      ],
      [
        "h",
        "ead"
      ],
      [
        "p",
        "ir"
      ],
      [
        "p",
        "ost"
      ],
      [
        "s",
        "amps"
      ],
      [
        "v",
        "ail"
      ],
      [
        "Ġa",
        "live"
      ],
      [
        "Ġs",
        "al"
      ],
      [
        "in",
        "king"
      ],
      [
        "Ġm",
        "oney"
      ],
      [
        "Ġm",
        "asters"
      ],
      [
        "an",
        "ces"
      ],
      [
        "ar",
        "ry"
      ],
      [
        "on",
        "es"
      ],
      [
        "Ġf",
        "ru"
      ],
      [
        "Ġf",
        "ee"
      ],
      [
        "Ġf",
        "ought"
      ],
      [
        "Ġc",
        "am"
      ],
      [
        "Ġd",
        "ied"
      ],
      [
        "Ġd",
        "eter"
      ],
      [
        "Ġg",
        "rumio"
      ],
      [
        "Ġha",
        "ir"
      ],
      [
        "ir",
        "l"
      ],
      [
        "Ġwh",
        "ite"
      ],
      [
        "Ġsh",
        "ore"
      ],
      [
        "Ġsh",
        "ip"
      ],
      [
        "Ġfor",
        "e"
      ],
      [
        "ea",
        "se"
      ],
      [
        "as",
        "k"
      ],
      [
        "Ġe",
        "ld"
      ],
      [
        "est",
        "ion"
      ],
      [
        "ck",
        "ed"
      ],
      [
        "Ġdo",
        "ing"
      ],
      [
        "Ġlord",
        "ship"
      ],
      [
        "il",
        "ity"
      ],
      [
        "ct",
        "ed"
      ],
      [
        "Ġman",
        "ner"
      ],
      [
        "Ġknow",
        "ledge"
      ],
      [
        "Ġar",
        "my"
      ],
      [
        "if",
        "ul"
      ],
      [
        "Ġen",
        "joy"
      ],
      [
        "Ġpro",
        "v"
      ],
      [
        "Ġwar",
        "m"
      ],
      [
        "lo",
        "ve"
      ],
      [
        "Ġab",
        "ro"
      ],
      [
        "Ġwhere",
        "fore"
      ],
      [
        "pet",
        "er"
      ],
      [
        "Ġhonour",
        "s"
      ],
      [
        "Ġse",
        "ver"
      ],
      [
        "Ġad",
        "d"
      ],
      [
        "ation",
        "s"
      ],
      [
        "Ġke",
        "pt"
      ],
      [
        "Ġdead",
        "ly"
      ],
      [
        "Ġcont",
        "r"
      ],
      [
        "Ġcont",
        "in"
      ],
      [
        "Ġgu",
        "est"
      ],
      [
        "Ġgu",
        "ess"
      ],
      [
        "ken",
        "bury"
      ],
      [
        "Ġdream",
        "s"
      ],
      [
        "Ġprom",
        "ised"
      ],
      [
        "Ġdang",
        "er"
      ],
      [
        "Ġfe",
        "w"
      ],
      [
        "Ġdesp",
        "air"
      ],
      [
        "Ġwretch",
        "ed"
      ],
      [
        "Ġvol",
        "s"
      ],
      [
        "ped",
        "ant"
      ],
      [
        "Ġchee",
        "ks"
      ],
      [
        "cur",
        "tis"
      ],
      [
        "tru",
        "e"
      ],
      [
        "Ġlab",
        "our"
      ],
      [
        "Ġstru",
        "ck"
      ],
      [
        "samps",
        "on"
      ],
      [
        ":",
        "--"
      ],
      [
        "e",
        "ither"
      ],
      [
        "g",
        "ory"
      ],
      [
        "h",
        "ost"
      ],
      [
        "i",
        "ct"
      ],
      [
        "o",
        "inted"
      ],
      [
        "r",
        "rel"
      ],
      [
        "u",
        "de"
      ],
      [
        "w",
        "ays"
      ],
      [
        "y",
[...]
